{"<|endoftext|>":0,"<|im_start|>":1,"<|im_end|>":2,"!":3,"\"":4,"#":5,"$":6,"%":7,"&":8,"'":9,"(":10,")":11,"*":12,"+":13,",":14,"-":15,".":16,"/":17,"0":18,"1":19,"2":20,"3":21,"4":22,"5":23,"6":24,"7":25,"8":26,"9":27,":":28,";":29,"<":30,"=":31,">":32,"?":33,"@":34,"A":35,"B":36,"C":37,"D":38,"E":39,"F":40,"G":41,"H":42,"I":43,"J":44,"K":45,"L":46,"M":47,"N":48,"O":49,"P":50,"Q":51,"R":52,"S":53,"T":54,"U":55,"V":56,"W":57,"X":58,"Y":59,"Z":60,"[":61,"\\":62,"]":63,"^":64,"_":65,"`":66,"a":67,"b":68,"c":69,"d":70,"e":71,"f":72,"g":73,"h":74,"i":75,"j":76,"k":77,"l":78,"m":79,"n":80,"o":81,"p":82,"q":83,"r":84,"s":85,"t":86,"u":87,"v":88,"w":89,"x":90,"y":91,"z":92,"{":93,"|":94,"}":95,"~":96,"¡":97,"¢":98,"£":99,"¤":100,"¥":101,"¦":102,"§":103,"¨":104,"©":105,"ª":106,"«":107,"¬":108,"®":109,"¯":110,"°":111,"±":112,"²":113,"³":114,"´":115,"µ":116,"¶":117,"·":118,"¸":119,"¹":120,"º":121,"»":122,"¼":123,"½":124,"¾":125,"¿":126,"À":127,"Á":128,"Â":129,"Ã":130,"Ä":131,"Å":132,"Æ":133,"Ç":134,"È":135,"É":136,"Ê":137,"Ë":138,"Ì":139,"Í":140,"Î":141,"Ï":142,"Ð":143,"Ñ":144,"Ò":145,"Ó":146,"Ô":147,"Õ":148,"Ö":149,"×":150,"Ø":151,"Ù":152,"Ú":153,"Û":154,"Ü":155,"Ý":156,"Þ":157,"ß":158,"à":159,"á":160,"â":161,"ã":162,"ä":163,"å":164,"æ":165,"ç":166,"è":167,"é":168,"ê":169,"ë":170,"ì":171,"í":172,"î":173,"ï":174,"ð":175,"ñ":176,"ò":177,"ó":178,"ô":179,"õ":180,"ö":181,"÷":182,"ø":183,"ù":184,"ú":185,"û":186,"ü":187,"ý":188,"þ":189,"ÿ":190,"Ā":191,"ā":192,"Ă":193,"ă":194,"Ą":195,"ą":196,"Ć":197,"ć":198,"Ĉ":199,"ĉ":200,"Ċ":201,"ċ":202,"Č":203,"č":204,"Ď":205,"ď":206,"Đ":207,"đ":208,"Ē":209,"ē":210,"Ĕ":211,"ĕ":212,"Ė":213,"ė":214,"Ę":215,"ę":216,"Ě":217,"ě":218,"Ĝ":219,"ĝ":220,"Ğ":221,"ğ":222,"Ġ":223,"ġ":224,"Ģ":225,"ģ":226,"Ĥ":227,"ĥ":228,"Ħ":229,"ħ":230,"Ĩ":231,"ĩ":232,"Ī":233,"ī":234,"Ĭ":235,"ĭ":236,"Į":237,"į":238,"İ":239,"ı":240,"Ĳ":241,"ĳ":242,"Ĵ":243,"ĵ":244,"Ķ":245,"ķ":246,"ĸ":247,"Ĺ":248,"ĺ":249,"Ļ":250,"ļ":251,"Ľ":252,"ľ":253,"Ŀ":254,"ŀ":255,"Ł":256,"ł":257,"Ń":258,"ä¸":259,"ï¼":260,"çļ":261,"çļĦ":262,"ï¼Į":263,"ãĢ":264,"ãĢĤ":265,"äº":266,"ä»":267,"åı":268,"æľ":269,"è¿":270,"æĪ":271,"åħ":272,"ä½":273,"æĺ":274,"å¤":275,"è¯":276,"ä¸Ģ":277,"æĸ":278,"å®":279,"çĶ":280,"åĪ":281,"åĴ":282,"åľ":283,"åĴĮ":284,"åĲ":285,"åĬ":286,"ç»":287,"ä¹":288,"æĺ¯":289,"å°":290,"åŃ":291,"ä¸ª":292,"ä»¥":293,"è®":294,"ãĢģ":295,"æĪĳ":296,"åľ¨":297,"äºº":298,"ĥ½":299,"en":300,"im":301,"end":302,"|>":303,"<|":304,"æľī":305,"ï¼ļ":306,"æĹ":307,"äºĨ":308,"åı¯":309,"è¿Ļ":310,"åĽ":311,"æĿ":312,"åº":313,"éĩ":314,"å¹":315,"å¸":316,"ä¸Ń":317,"ä¼":318,"éĢ":319,"è¡":320,"èĥ½":321,"çļĦæ":322,"åĩ":323,"ãĢĤ<|":324,"å·":325,"æĸĩ":326,"åĮ":327,"è¦":328,"è¦ģ":329,"é¢":330,"å¯":331,"å¾":332,"åĨ":333,"ä¸º":334,"è§":335,"å¥":336,"çī":337,"ç§":338,"ä»¬":339,"éĹ":340,"çİ":341,"å¼":342,"ä¸į":343,"çĶ¨":344,"æķ":345,"èĢ":346,"å½":347,"æĢ":348,"æŀ":349,"çĶŁ":350,"çŃ":351,"æı":352,"æī":353,"æŃ":354,"åı¯ä»¥":355,"éĿ":356,"åį":357,"ä¿":358,"æĬ":359,"æł":360,"æ³":361,"çĽ":362,"âĢ":363,"æĿ¥":364,"èĩ":365,"æĦ":366,"åĵ":367,"å¦":368,"ä¸ĭ":369,"çĲ":370,"ä¸Ģä¸ª":371,"æĪĲ":372,"åİ":373,"æĥ":374,"æıĲ":375,"æ°":376,"åĪ°":377,"ä»ĸ":378,"æĽ":379,"åŃ¦":380,"æĻ":381,"å¦Ĥ":382,"è¡Į":383,"åĩº":384,"åĳ":385,"å¿":386,"æĹ¶":387,"å¯¹":388,"æĭ":389,"ä½ł":390,"åŃĲ":391,"ä¾":392,"äºİ":393,"æİ":394,"åľ°":395,"é¢ĺ":396,"ä¸Ĭ":397,"ç«":398,"æĶ":399,"è´":400,"å°ı":401,"å¥½":402,"ä¼ļ":403,"çŃī":404,"æĸ¹":405,"æľ¬":406,"èĩª":407,"åĪĨ":408,"æĽ´":409,"äºĽ":410,"å¤ļ":411,"æµ":412,"æ¯":413,"èµ":414,"å¤§":415,"å±":416,"æį":417,"ï¼Ł":418,"åĬ¨":419,"ä½ľ":420,"å·¥":421,"çī©":422,"çº":423,"åħ³":424,"è¾":425,"å¹¶":426,"åıĳ":427,"ç®":428,"æĮ":429,"ç±":430,"é£":431,"éľ":432,"æĪĳä»¬":433,"éĿ¢":434,"æ´":435,"å®ļ":436,"æľĢ":437,"åħ¶":438,"æŀľ":439,"åŁ":440,"æ¬":441,"ç§į":442,"çİ°":443,"çļĦç":444,"è¿Ľ":445,"æ³ķ":446,"éĻ":447,"è¿ĩ":448,"æĤ":449,"éĹ®":450,"åģ":451,"æ¸":452,"ä½ĵ":453,"èī":454,"å¤©":455,"å®ĥ":456,"æį®":457,"ç»Ļ":458,"åĬĽ":459,"çĲĨ":460,"æĺİ":461,"éľĢ":462,"æ²":463,"å°Ĩ":464,"åºĶ":465,"åĬł":466,"ç±»":467,"æĸ°":468,"éģ":469,"çĤ":470,"åĮĸ":471,"æĢ§":472,"çĦ":473,"é«":474,"åĲĮ":475,"æĪĸ":476,"ä½¿":477,"åĽł":478,"ä¿Ŀ":479,"å¸¸":480,"éĩį":481,"çľ":482,"é«ĺ":483,"åı¥":484,"è½":485,"æĦŁ":486,"å®¶":487,"ä¹Ł":488,"æľº":489,"å½±":490,"è¶":491,"æ±":492,"ä¸»":493,"éĶ":494,"éĺ":495,"è¯Ń":496,"çĦ¶":497,"ç«ł":498,"å¾Ĺ":499,"âĢĿ":500,"æķ°":501,"æĸĩç«ł":502,"éĢļ":503,"åĵģ":504,"âĢľ":505,"ç³":506,"éľĢè¦ģ":507,"çĶµ":508,"æĬĢ":509,"æĻº":510,"è°":511,"è§£":512,"æĸĩæľ¬":513,"ä¹ĭ":514,"ä¹Ī":515,"æĥħ":516,"æĤ¨":517,"éĹ®é¢ĺ":518,"åº¦":519,"çŁ":520,"èĢĮ":521,"åī":522,"æģ":523,"è¡¨":524,"ç»ı":525,"æĻºèĥ½":526,"è¯·":527,"çĿ":528,"å¾Ī":529,"éĹ´":530,"æŃ¤":531,"èĬ":532,"åĸ":533,"ç¾":534,"åħ¬":535,"å¢":536,"éĩı":537,"åĽ½":538,"ç©":539,"çĤ¹":540,"æľ¯":541,"ç¤":542,"èī²":543,"èĤ":544,"èĢħ":545,"è¯į":546,"å¹´":547,"å®ŀ":548,"æ°Ķ":549,"å»":550,"åĢ":551,"åıĸ":552,"ä¿¡":553,"è¿Ļä¸ª":554,"ä¹ł":555,"åĲį":556,"ç¨":557,"å¿ĥ":558,"ä½Ĩ":559,"åĲĪ":560,"æĦı":561,"è¯¥":562,"ä¸ļ":563,"ä¾Ľ":564,"çĸ":565,"è®¡":566,"åĲİ":567,"ç¡":568,"éĤ":569,"äºĭ":570,"æīĢ":571,"ä»¥ä¸ĭ":572,"ä»İ":573,"è¿ĺ":574,"å»º":575,"æ®":576,"çĽ¸":577,"çĿĢ":578,"çĲĥ":579,"ä¸ĢäºĽ":580,"éĥ½":581,"åĮħ":582,"æıĲä¾Ľ":583,"æ´»":584,"ä¸İ":585,"ç¾İ":586,"æł¹":587,"è¿Ľè¡Į":588,"æŁ":589,"åı¥åŃĲ":590,"ç½":591,"å¼ı":592,"é£Ł":593,"åħ¥":594,"å±ķ":595,"åħ¨":596,"éĩĮ":597,"è¿°":598,"äººå·¥":599,"å¤ĸ":600,"çİ¯":601,"é¡":602,"çķ":603,"çī¹":604,"ä½¿çĶ¨":605,"æĥ³":606,"ç´":607,"éĿŀ":608,"èĲ":609,"é¦":610,"äººå·¥æĻºèĥ½":611,"ç¯":612,"åĨħ":613,"æŃ£":614,"æ¡":615,"è¢":616,"éļ":617,"å½ĵ":618,"å¼Ģ":619,"åİ»":620,"éķ":621,"æģ¯":622,"æł¹æį®":623,"æ°´":624,"æ·":625,"æ¯Ķ":626,"åıĺ":627,"åĨĻ":628,"æ®µ":629,"æĺ¯ä¸Ģ":630,"åŀ":631,"éĥ":632,"ç³»":633,"è·":634,"åĬ©":635,"èģ":636,"è¯´":637,"åŃ¦ä¹ł":638,"ç¨ĭ":639,"åĪ¶":640,"åħ·":641,"ç¡®":642,"å¸Ĥ":643,"è®©":644,"ä»Ģ":645,"éĽ":646,"æĮģ":647,"éģĵ":648,"åĿ":649,"çľĭ":650,"ç¯ĩ":651,"ç¼":652,"äº§":653,"èµ·":654,"çĥ":655,"ç»ĵ":656,"åķ":657,"ä»Ģä¹Ī":658,"æĬĢæľ¯":659,"å¸®":660,"èº":661,"åıĬ":662,"è¯Ŀ":663,"éĥ¨":664,"çĽ®":665,"éĤ£":666,"èĭ":667,"ç¬":668,"ä½ķ":669,"éķ¿":670,"éĿŀå¸¸":671,"èį":672,"åĬ¡":673,"ç®Ĺ":674,"æ¯ı":675,"èº«":676,"çĭ":677,"è¢«":678,"åģ¥":679,"ç§ĳ":680,"æĹ¥":681,"å°ĳ":682,"å·±":683,"åīį":684,"åĻ":685,"æĭ¬":686,"éħ":687,"éĢĤ":688,"åĸľ":689,"èĩªå·±":690,"åľº":691,"å®¹":692,"åıĹ":693,"åı¯èĥ½":694,"æĹł":695,"åĽŀ":696,"æ¬¢":697,"ä¿¡æģ¯":698,"éĢī":699,"ä»ĸä»¬":700,"åĻ¨":701,"åĮ»":702,"äº¤":703,"å¥½çļĦ":704,"ä»£":705,"åŀĭ":706,"é¢Ĩ":707,"åĪ«":708,"èĻ":709,"çł":710,"å¤Ħ":711,"çĶµå½±":712,"çŃĶ":713,"è¨":714,"é¥":715,"çĪ":716,"éª":717,"æ¶":718,"ä½į":719,"åĪ©":720,"è´¨":721,"æ»":722,"è®®":723,"é£İ":724,"å¢ĥ":725,"å¹³":726,"ä¸¤":727,"æ¡Ī":728,"æīĭ":729,"çĹ":730,"å§":731,"ä¾ĭ":732,"è¿ĻäºĽ":733,"éĩįè¦ģ":734,"éĢļè¿ĩ":735,"å¦Ĥæŀľ":736,"ä¸ŃçļĦ":737,"éŁ":738,"ä»»":739,"åĵį":740,"ä»¶":741,"çĶŁæĪĲ":742,"åĮħæĭ¬":743,"è®º":744,"åŃĹ":745,"åı¸":746,"åŁŁ":747,"åıĳå±ķ":748,"è¨Ģ":749,"çĻ":750,"åºĶçĶ¨":751,"å°ıæĺİ":752,"å°±":753,"æłĩ":754,"ç®Ģ":755,"æ±Ĥ":756,"æ²¡":757,"åĪĽ":758,"åįķ":759,"åĨ³":760,"è§Ĥ":761,"æĶ¹":762,"æĶ¾":763,"æİ¨":764,"æ¸¸":765,"èĪ":766,"çģ":767,"åıª":768,"æľª":769,"è®¾":770,"å½±åĵį":771,"çŁ¥":772,"åº·":773,"ç»Ł":774,"æĹ¶éĹ´":775,"ä¸ī":776,"æĢ»":777,"å¸®åĬ©":778,"ç¥":779,"æľŁ":780,"é»":781,"å£":782,"åĸľæ¬¢":783,"æº":784,"ä¹Ĳ":785,"èĬĤ":786,"åħ¬åı¸":787,"æıı":788,"æķĪ":789,"è¯Ĩ":790,"åģ¥åº·":791,"æµ·":792,"æ¨":793,"å¼º":794,"å¤Ł":795,"èĥ":796,"ç»Ļå®ļ":797,"ç¤¾":798,"æĸŃ":799,"åĩı":800,"äººç±»":801,"æĳ":802,"æ³¨":803,"æŀģ":804,"å®ī":805,"é¢ĨåŁŁ":806,"çĶŁæ´»":807,"æ¼":808,"æľį":809,"è¾¾":810,"æ·±":811,"çĶ±":812,"æł·":813,"çĸĹ":814,"åĽłæŃ¤":815,"çİ¯å¢ĥ":816,"ä¸įåĲĮ":817,"æŃ¥":818,"å·¥ä½ľ":819,"æĺŁ":820,"è±":821,"èĦ":822,"é©":823,"éŁ³":824,"å¤ª":825,"æķ°æį®":826,"æµģ":827,"å½¢":828,"åİŁ":829,"åģļ":830,"ä¸ĸ":831,"å·²":832,"èİ":833,"æıĲåıĸ":834,"æĻ¯":835,"è½¦":836,"åıĭ":837,"æııè¿°":838,"æ²¡æľī":839,"å¸¦":840,"æĪ·":841,"åĽłä¸º":842,"å¯¼":843,"è¿Ĳ":844,"æ¬¡":845,"åĳĺ":846,"çĮ":847,"ç²":848,"éĴ":849,"èı":850,"å»ºè®®":851,"æ¨¡":852,"æĸĻ":853,"éĶ®":854,"æıĲé«ĺ":855,"è¯ķ":856,"èĩªçĦ¶":857,"å®ĥä»¬":858,"æī¾":859,"ãĢĭ":860,"åŁº":861,"ãĢĬ":862,"å¦Ĥä½ķ":863,"è®¤":864,"åİĨ":865,"ä¹ī":866,"åŁİ":867,"æĽ´åĬł":868,"å¥¹":869,"ä¼ł":870,"æºĲ":871,"ä¸»è¦ģ":872,"åĲĦ":873,"åħ³éĶ®":874,"ç¤º":875,"æĬ¤":876,"æĭ©":877,"æĮĩ":878,"åºĶè¯¥":879,"åĲĳ":880,"éĢł":881,"æł¼":882,"ç»Ħ":883,"éĢīæĭ©":884,"çķĮ":885,"åħī":886,"çļĦæķ":887,"æĸ¹å¼ı":888,"æĹħ":889,"åĲĮæĹ¶":890,"è¿ĳ":891,"èĥ½å¤Ł":892,"ç¯ĩæĸĩç«ł":893,"èĲ½":894,"ç©¶":895,"è£":896,"åĨħå®¹":897,"è°ĥ":898,"äººä»¬":899,"åı£":900,"çĪ±":901,"ï¼Ľ":902,"è¯Ńè¨Ģ":903,"è§Ĩ":904,"åĳ³":905,"ç©º":906,"çº¢":907,"åĮº":908,"èĢĥ":909,"ä»·":910,"åĲĹ":911,"åħ³äºİ":912,"çĬ":913,"ç½ĳ":914,"èĬ±":915,"åĳĬ":916,"æĺ¯ä¸Ģä¸ª":917,"ä¾ĭå¦Ĥ":918,"æľªæĿ¥":919,"çĹħ":920,"é¤":921,"è®¡ç®Ĺ":922,"å¿«":923,"å¹¿":924,"æľºåĻ¨":925,"ç®¡":926,"æĸ¹æ³ķ":927,"æĸ¹éĿ¢":928,"é¢Ħ":929,"å¢ŀ":930,"ï¼ī":931,"åķĨ":932,"éªĮ":933,"é¤Ĳ":934,"æĢĿ":935,"Ķç©¶":936,"ç¦":937,"ä¹¦":938,"ä¸Ķ":939,"åĩĨ":940,"å®Į":941,"åĩł":942,"é¦ĸ":943,"éĵ":944,"å®¢":945,"éĶĻ":946,"åĪ°äºĨ":947,"é¡¹":948,"åħ¶ä»ĸ":949,"ä¼ĺ":950,"è¶Ĭ":951,"ä»¥åıĬ":952,"ä¸»é¢ĺ":953,"é¸":954,"å¼ķ":955,"éĩĳ":956,"è®¸":957,"è¯Ħ":958,"æļ":959,"æ¸ħ":960,"åħĪ":961,"ç´ł":962,"åĬŁ":963,"æ£":964,"å¤ĩ":965,"è½»":966,"æİ¥":967,"è§ī":968,"åĪĹ":969,"ï¼Ī":970,"è¯»":971,"èµĦ":972,"æĪĺ":973,"èĮ":974,"åĪĨç±»":975,"å§ĭ":976,"ä»Ĭ":977,"ä¸ªäºº":978,"éĺ³":979,"çŁŃ":980,"èĩ´":981,"åŃĺ":982,"åĵª":983,"æµĭ":984,"æķĻ":985,"æĢģ":986,"æ¸©":987,"ç»Ń":988,"åĢĻ":989,"ï¼ģ":990,"æľĭ":991,"æŀĲ":992,"ç¼ĸ":993,"ä¸ĸçķĮ":994,"åħ±":995,"ä½Ĩæĺ¯":996,"åĲ«":997,"æľĪ":998,"èıľ":999,"æľĭåıĭ":1000,"çº¦":1001,"åħĭ":1002,"ç§¯":1003,"ç«ĭ":1004,"çİĩ":1005,"åĽŀçŃĶ":1006,"æĸĩåĮĸ":1007,"åĪĨæŀĲ":1008,"å¤ĦçĲĨ":1009,"åı²":1010,"ç»Ĩ":1011,"çļĦæĥ":1012,"ä¸Ģä¸ĭ":1013,"æĶ¯":1014,"åĩıå°ĳ":1015,"åŁİå¸Ĥ":1016,"è±¡":1017,"å±±":1018,"ä¹ĭä¸Ģ":1019,"è¶³":1020,"è¿Ļç¯ĩæĸĩç«ł":1021,"ä¸ŃåĽ½":1022,"æķ´":1023,"åĲ¦":1024,"å¤į":1025,"ç¬¬":1026,"Ġè¯·":1027,"åĪĻ":1028,"æ»¡":1029,"åĨµ":1030,"ä¿ĿæĬ¤":1031,"çłĶç©¶":1032,"ĺè¦ģ":1033,"èĳ":1034,"åħĥ":1035,"è§Ĵ":1036,"ç¥ŀ":1037,"é¥®":1038,"20":1039,"å·²ç»ı":1040,"åĥ":1041,"æľĽ":1042,"è®¸å¤ļ":1043,"æİ¢":1044,"äºĨä¸Ģ":1045,"èĩªå·±çļĦ":1046,"ä¸¤ä¸ª":1047,"ç³ĸ":1048,"éĩĩ":1049,"åıį":1050,"ç¿":1051,"è°¢":1052,"èĢģ":1053,"äº§åĵģ":1054,"çº¿":1055,"åĪĴ":1056,"è¾ĵ":1057,"çľŁ":1058,"åĮ»çĸĹ":1059,"æŃ¤å¤ĸ":1060,"çĭĹ":1061,"ç³»ç»Ł":1062,"æĽ´å¤ļ":1063,"è§Ħ":1064,"å°½":1065,"éĢŁ":1066,"åĶ":1067,"çħ":1068,"è¶£":1069,"è·¯":1070,"éĻ©":1071,"å¥³":1072,"åıĤ":1073,"çļĦäºº":1074,"èģĶ":1075,"åĲĥ":1076,"ä¿ĿæĮģ":1077,"ä»½":1078,"æĸ¯":1079,"è¥":1080,"åħ¨çĲĥ":1081,"æĺ¯ä¸Ģç§į":1082,"æĬ¥":1083,"æĺĵ":1084,"çĽ´":1085,"åĬ¨çī©":1086,"Â·":1087,"æľįåĬ¡":1088,"çĻ½":1089,"å¤´":1090,"åĢ¼":1091,"è¥¿":1092,"æĸ½":1093,"è§£åĨ³":1094,"æİĴ":1095,"æĪĲä¸º":1096,"ħäºĭ":1097,"åĨį":1098,"åĥı":1099,"çĥŃ":1100,"çİ¯ä¿Ŀ":1101,"ä»ĭ":1102,"åĽ¾":1103,"æ´»åĬ¨":1104,"å²":1105,"éļ¾":1106,"ä¹°":1107,"ä¾¿":1108,"åĳ¨":1109,"çļĦä¸Ģ":1110,"æŁ¥":1111,"æĪĸèĢħ":1112,"èİ·":1113,"è¾ĥ":1114,"èĻĳ":1115,"æŀĦ":1116,"æĿ¡":1117,"ç¤¾ä¼ļ":1118,"å®īåħ¨":1119,"10":1120,"è¿ĲåĬ¨":1121,"è§ģ":1122,"çīĩ":1123,"åĲ¬":1124,"èº«ä½ĵ":1125,"ç»ĻæĪĳ":1126,"è¯Ĺ":1127,"åıĳçİ°":1128,"èĩ³":1129,"æĲ":1130,"çļĦæĥħ":1131,"æ¼Ķ":1132,"éħį":1133,"éļı":1134,"åıĺåĮĸ":1135,"çİ°åľ¨":1136,"ãĢĤâĢĿ":1137,"æīĵ":1138,"ç§ĳæĬĢ":1139,"åħ¶ä¸Ń":1140,"ç»ĥ":1141,"åºı":1142,"æĶ¶":1143,"çĬ¶":1144,"è®¤ä¸º":1145,"å¼ł":1146,"èĤ²":1147,"å¤©æ°Ķ":1148,"ä¸½":1149,"ç´¢":1150,"éĤ£ä¹Ī":1151,"æĪĳä»¬çļĦ":1152,"åĳ½":1153,"ä¹ĭéĹ´":1154,"äº«":1155,"æĬĬ":1156,"ç²¾":1157,"è®°":1158,"æ¶Ī":1159,"¹æŀľ":1160,"æħ":1161,"åħħ":1162,"èĥ½åĬĽ":1163,"çĽ¸åħ³":1164,"èĭ¹æŀľ":1165,"äºĮ":1166,"ä½łçļĦ":1167,"åİĨåı²":1168,"æĶ¿":1169,"åĲ¸":1170,"å¾Īå¤ļ":1171,"åı¤":1172,"çŃĸ":1173,"å¡":1174,"å¸¦æĿ¥":1175,"çı":1176,"æ¤":1177,"æĳĺè¦ģ":1178,"åĽŃ":1179,"åħ·æľī":1180,"è´Ń":1181,"ç¢":1182,"åħ´":1183,"éĺŁ":1184,"å¸Ī":1185,"ä½İ":1186,"çĮ«":1187,"å¤±":1188,"éĹ¨":1189,"æ¬¾":1190,"ç»´":1191,"æ²»":1192,"åį³":1193,"ç»Ļå®ļçļĦ":1194,"éĹ»":1195,"ç§ĳåŃ¦":1196,"ç§°":1197,"å¸ĥ":1198,"æ¢":1199,"çĭ¬":1200,"åħį":1201,"æŃĮ":1202,"è¯ī":1203,"éĩĬ":1204,"äºĴ":1205,"èįĲ":1206,"åĭ":1207,"éŁ³ä¹Ĳ":1208,"ç»Ļåĩº":1209,"å°Ŀ":1210,"çļĦæĦ":1211,"¦Ĥ":1212,"çŃĶæ¡Ī":1213,"æīį":1214,"æĿĲ":1215,"è¿Ļç§į":1216,"è®¾è®¡":1217,"ç§¯æŀģ":1218,"ç»į":1219,"å¼Ģå§ĭ":1220,"ä»»åĬ¡":1221,"èĲ¥":1222,"æĿ¾":1223,"äºĨè§£":1224,"éĽĨ":1225,"è¡¨è¾¾":1226,"ä»ĭç»į":1227,"ä¸ŃæıĲåıĸ":1228,"åı¥è¯Ŀ":1229,"çļĦå½±åĵį":1230,"å¯¼èĩ´":1231,"å¯Į":1232,"è¯¯":1233,"åŃ£":1234,"å¿ħ":1235,"å¨":1236,"èĽ":1237,"å¯¹äºİ":1238,"æ¨¡åŀĭ":1239,"åħ·ä½ĵ":1240,"è®¡ç®Ĺæľº":1241,"èĭ±":1242,"çĶ·":1243,"æĥħæĦŁ":1244,"æľºåĻ¨åŃ¦ä¹ł":1245,"çĲĨè§£":1246,"Ġæł¹æį®":1247,"æİ¨èįĲ":1248,"çļĦæĬ":1249,"è½¬":1250,"å®ŀçİ°":1251,"æľĢè¿ĳ":1252,"æĸ°çļĦ":1253,"æĺ¯åĲ¦":1254,"éĢļå¸¸":1255,"åı·":1256,"åįĩ":1257,"åİĭ":1258,"è®¨":1259,"é¦Ļ":1260,"éĻ¤":1261,"èµĽ":1262,"è®²":1263,"åĬ¿":1264,"ä¸ĵ":1265,"ä»Ĭå¤©":1266,"æĽ´å¥½":1267,"èĤī":1268,"é²":1269,"åĮĹ":1270,"ä¸įæĸŃ":1271,"åĲĦç§į":1272,"ä¿®":1273,"æĿİ":1274,"è´¹":1275,"é»ĳ":1276,"éĶĢ":1277,"æ°ĳ":1278,"åľ°çĲĥ":1279,"è®¡åĪĴ":1280,"å¸Ĥåľº":1281,"è£ħ":1282,"åįİ":1283,"æĪı":1284,"åįģ":1285,"åħ³éĶ®è¯į":1286,"åĳĬè¯ī":1287,"è¯ģ":1288,"æŁĵ":1289,"åħ»":1290,"çļĦéĹ®é¢ĺ":1291,"æīĢæľī":1292,"ä¸Ģæ®µ":1293,"é©¬":1294,"èħ":1295,"åĸĦ":1296,"åĽ´":1297,"æīĢä»¥":1298,"çĶ¨æĪ·":1299,"æ³¨æĦı":1300,"èīº":1301,"æĻļ":1302,"ç»Ī":1303,"æĪĳçļĦ":1304,"åįķè¯į":1305,"å¯»":1306,"è¯ĨåĪ«":1307,"éĢĤåĲĪ":1308,"å¤ı":1309,"ä¸Ģèµ·":1310,"æİ§":1311,"ç¦»":1312,"å¸Į":1313,"æŃ£åľ¨":1314,"çª":1315,"AI":1316,"æĪĳä»¬åı¯ä»¥":1317,"èĳĹ":1318,"å¾ĭ":1319,"éĻħ":1320,"éĺ²":1321,"æĸ°éĹ»":1322,"æ¯Ķå¦Ĥ":1323,"è¶ħ":1324,"ä»ĸçļĦ":1325,"åĽĽ":1326,"è¿ľ":1327,"å¤ªéĺ³":1328,"åŃ©":1329,"è¦ģæ±Ĥ":1330,"çŁ¥éģĵ":1331,"çļĦæĺ¯":1332,"æĹłæ³ķ":1333,"å°Ķ":1334,"å¹¶ä¸Ķ":1335,"ä¸Ģç§į":1336,"å·§":1337,"æĦŁåĪ°":1338,"æŀĹ":1339,"æ³Ľ":1340,"å£°":1341,"æĴ":1342,"èµ°":1343,"åĳ¢":1344,"åħ³ç³»":1345,"æŁĲ":1346,"å°ıè¯´":1347,"çĦ¶åĲİ":1348,"åı¦":1349,"ä»ħ":1350,"ï¼ļâĢľ":1351,"è´Ł":1352,"æĹħæ¸¸":1353,"è¿ĩç¨ĭ":1354,"åįĹ":1355,"æ¯ıä¸ª":1356,"å£«":1357,"ç½®":1358,"åŃĺåľ¨":1359,"æĢ»ç»ĵ":1360,"å¤§çļĦ":1361,"åİħ":1362,"èģĮ":1363,"è§£éĩĬ":1364,"èĢĥèĻĳ":1365,"å¾·":1366,"æĪĲåĬŁ":1367,"æĭī":1368,"è´¨éĩı":1369,"è¾¹":1370,"æĹ©":1371,"çļĦæ°":1372,"ç®¡çĲĨ":1373,"éĻį":1374,"èĽĭ":1375,"çļĦæĢ":1376,"åŃ¦çĶŁ":1377,"æĺ¾":1378,"ĳæĪĺ":1379,"åĦ":1380,"æĪ¿":1381,"çŃīçŃī":1382,"èŀ":1383,"ªæĸ½":1384,"æ®µèĲ½":1385,"è¡Įä¸º":1386,"ç¾İåĽ½":1387,"ä¸ľ":1388,"æĪĳæĥ³":1389,"éĶĻè¯¯":1390,"åĮ»çĶŁ":1391,"å¢ŀåĬł":1392,"ä¸Ģç¯ĩ":1393,"è¾ĳ":1394,"çĨ":1395,"ä¼¼":1396,"å°Ŀè¯ķ":1397,"äºĶ":1398,"çħ§":1399,"å¯¹è¯Ŀ":1400,"å®ĮæĪĲ":1401,"æ¦Ĥ":1402,"å¯Ĩ":1403,"çİ©":1404,"æĺ¯ä»Ģä¹Ī":1405,"å¹¿æ³Ľ":1406,"ç±³":1407,"ä¸ĭéĿ¢":1408,"ä½ľä¸º":1409,"åĪ©çĶ¨":1410,"çĶ»":1411,"è¿Ļæ®µ":1412,"ä¸įåĲĮçļĦ":1413,"çģ«":1414,"èĩªåĬ¨":1415,"æľĢåĲİ":1416,"é¥®é£Ł":1417,"æĭ¥":1418,"æļĸ":1419,"çİĭ":1420,"éģ¿":1421,"åĴĸ":1422,"å½ĵçĦ¶":1423,"æ¿":1424,"é£Łçī©":1425,"è®Ń":1426,"çļĦåıĳå±ķ":1427,"å®³":1428,"å¾ĹåĪ°":1429,"æµİ":1430,"åı°":1431,"æĽ´å¥½åľ°":1432,"åĽ¢":1433,"ç¡®ä¿Ŀ":1434,"å¿µ":1435,"åı¯èĥ½ä¼ļ":1436,"çļĦåľ°":1437,"çļĦæķ°":1438,"ä¼ģ":1439,"çļĦä¿¡æģ¯":1440,"ãĢĤ\\":1441,"ä»»ä½ķ":1442,"æ°ĶåĢĻ":1443,"äºļ":1444,"ç®Ĺæ³ķ":1445,"åķ¡":1446,"èŀį":1447,"çļĦåºĶçĶ¨":1448,"äº¬":1449,"ä¸įæĺ¯":1450,"æłĩé¢ĺ":1451,"äº§çĶŁ":1452,"éĻĲ":1453,"æĤ¨çļĦ":1454,"åĴĸåķ¡":1455,"æĥħåĨµ":1456,"æ´ģ":1457,"æĵ":1458,"å®¤":1459,"å¸ĮæľĽ":1460,"æķħäºĭ":1461,"èįī":1462,"èİ·å¾Ĺ":1463,"æį¢":1464,"è¿ĺæľī":1465,"åł":1466,"éĽ¨":1467,"äººçļĦ":1468,"ç»ľ":1469,"äº¤éĢļ":1470,"æĢİ":1471,"å·´":1472,"è¾ĵåħ¥":1473,"çĽ®æłĩ":1474,"åĦ¿":1475,"ç»ıæµİ":1476,"è¿Ļæł·":1477,"çĶŁæĪĲä¸Ģä¸ª":1478,"å¹²":1479,"é»Ħ":1480,"è¡¨ç¤º":1481,"é¦ĸåħĪ":1482,"çĶ¨äºİ":1483,"åı¯ä»¥å¸®åĬ©":1484,"éħĴ":1485,"è¡£":1486,"é£ŀ":1487,"éĥ½æĺ¯":1488,"ç³ĸæŀľ":1489,"ä¼Ĺ":1490,"å¾ģ":1491,"æľīæķĪ":1492,"é¤Ĳåİħ":1493,"çļĦä¸»è¦ģ":1494,"ä½łåı¯ä»¥":1495,"éĺħ":1496,"åĮħåĲ«":1497,"çīĽ":1498,"çļĦæł":1499,"ç©¿":1500,"åºĹ":1501,"æĹħè¡Į":1502,"æī¾åĪ°":1503,"å¾Ģ":1504,"æķĻèĤ²":1505,"å±ŀ":1506,"åºŃ":1507,"ç»ĵæŀľ":1508,"ç®Ģåįķ":1509,"¡æŁĵ":1510,"éľĢæ±Ĥ":1511,"æ¸¸æĪı":1512,"æ¿Ģ":1513,"çļĦéĩįè¦ģ":1514,"éĥ¨åĪĨ":1515,"éº":1516,"åĳĬè¯īæĪĳ":1517,"ä½¿åħ¶":1518,"åĿĩ":1519,"éģ¿åħį":1520,"éĩĩåıĸ":1521,"æ©":1522,"å±ħ":1523,"æ½":1524,"è§ĤçĤ¹":1525,"åĩłä¸ª":1526,"æİªæĸ½":1527,"ç½ĳç»ľ":1528,"åĪ¶ä½ľ":1529,"çīĮ":1530,"åĩĨç¡®":1531,"ä¹Łæĺ¯":1532,"æľīåħ³":1533,"å¾®":1534,"ä»¤":1535,"äºī":1536,"æĮģç»Ń":1537,"æĶ¯æĮģ":1538,"èĥ½æºĲ":1539,"ä¸ĩ":1540,"ä½ĵéªĮ":1541,"åª":1542,"é±":1543,"èµ·æĿ¥":1544,"äºĨä¸Ģä¸ª":1545,"é±¼":1546,"ä½ľçĶ¨":1547,"åī§":1548,"ä¼ģä¸ļ":1549,"è¡¨çİ°":1550,"éĩįè¦ģçļĦ":1551,"ç«Ļ":1552,"ç»¿":1553,"ä¸įèĥ½":1554,"çĽĬ":1555,"é¼":1556,"çĳ":1557,"æłĳ":1558,"åıĳçĶŁ":1559,"ä»ĸä»¬çļĦ":1560,"ä¹Łåı¯ä»¥":1561,"00":1562,"èĵ":1563,"èī¯":1564,"éĺħè¯»":1565,"åĪĩ":1566,"å°ıçº¢":1567,"èĩªçĦ¶è¯Ńè¨Ģ":1568,"æ¤į":1569,"¾çĹħ":1570,"é¾":1571,"çĶ±äºİ":1572,"çİ°ä»£":1573,"ä¸īä¸ª":1574,"å¤ľ":1575,"åĵªäºĽ":1576,"åĪ¤":1577,"ç¤¾äº¤":1578,"å®Ŀ":1579,"å¾ħ":1580,"ç¬¦":1581,"æ²¹":1582,"æĭ¥æľī":1583,"åŁºäºİ":1584,"å¥¶":1585,"âĢĿï¼Į":1586,"æ¹":1587,"åĬłåħ¥":1588,"åħ³æ³¨":1589,"çº§":1590,"å¥ĩ":1591,"è¿ĺæĺ¯":1592,"èī²çļĦ":1593,"ç»ĩ":1594,"è¯Ĭ":1595,"æ±¡æŁĵ":1596,"åıĪ":1597,"å¦Ĥæŀľä½ł":1598,"é¢ľ":1599,"éģĩ":1600,"åĬª":1601,"ä¸¾":1602,"åºľ":1603,"åĿĹ":1604,"ï¼Ł<|":1605,"é¦Ĩ":1606,"åĩºçİ°":1607,"è¿ŀ":1608,"çļĦæĸĩç«ł":1609,"ä¸°":1610,"é¸¡":1611,"ç±»åŀĭ":1612,"ä»¥ä¸ĭåı¥åŃĲ":1613,"ç¡®å®ļ":1614,"åĪ»":1615,"å®¶åºŃ":1616,"æĮĳæĪĺ":1617,"æĺ¥":1618,"å®¢æĪ·":1619,"èµĦæºĲ":1620,"çļĦæİ":1621,"åĬªåĬĽ":1622,"Ġä»İ":1623,"åĶ®":1624,"è½¯":1625,"ç¿»":1626,"èĪĴ":1627,"èį¯":1628,"è®Ńç»ĥ":1629,"æİ§åĪ¶":1630,"èĻ½":1631,"æľīè¶£":1632,"éĿĻ":1633,"æĢ§åĴĮ":1634,"æķ£":1635,"è¿½":1636,"Ġå°Ĩ":1637,"åĬŁèĥ½":1638,"è¿Ļæĺ¯":1639,"ä»İèĢĮ":1640,"èĦĳ":1641,"çļĦæĬĢ":1642,"æŃ£ç¡®":1643,"åıĹåĪ°":1644,"æĸ¹æ¡Ī":1645,"çļĦåı¥åŃĲ":1646,"çļĦæĻ":1647,"ä¸ºäºĨ":1648,"ç§ĭ":1649,"é¸Ł":1650,"æ£Ģ":1651,"ä¸¥":1652,"æĬķ":1653,"éŃ":1654,"èŃ":1655,"è§Ĵèī²":1656,"æ²»çĸĹ":1657,"æĤ¨åı¯ä»¥":1658,"åħ¸":1659,"çĸ¾çĹħ":1660,"é¢Ħæµĭ":1661,"èīºæľ¯":1662,"å±Ĥ":1663,"æ²Ļ":1664,"çļĦç¾":1665,"å½Ĵ":1666,"åİĭåĬĽ":1667,"ç¨ĭåºı":1668,"æ¯Ķè¾ĥ":1669,"æķĪçİĩ":1670,"æİ¢ç´¢":1671,"åģĩ":1672,"äºĳ":1673,"è¯¦":1674,"äººå·¥æĻºèĥ½æĬĢæľ¯":1675,"äºĭä»¶":1676,"èĮĥ":1677,"èĶ":1678,"ä¸ĬçļĦ":1679,"æĤ£":1680,"æĿ¯":1681,"è´Ńä¹°":1682,"ä¼łç»Ł":1683,"æĿĤ":1684,"çļĦæĦı":1685,"çŁ³":1686,"èĻ½çĦ¶":1687,"éĻ¢":1688,"æľĢç»Ī":1689,"éĨ":1690,"ä¸įä»ħ":1691,"æĿ¥è¶Ĭ":1692,"æ°ĶåĢĻåıĺåĮĸ":1693,"çĶŁçī©":1694,"çĶŁåĳ½":1695,"é²ľ":1696,"è¶ĬæĿ¥è¶Ĭ":1697,"æĮī":1698,"ç¦ı":1699,"çĶµåŃĲ":1700,"æīįèĥ½":1701,"æµª":1702,"æĪĳä»¬éľĢè¦ģ":1703,"éļıçĿĢ":1704,"é£İéĻ©":1705,"æ¥":1706,"å°±æĺ¯":1707,"Ġåľ¨":1708,"æĽ²":1709,"ä¸Ģä»½":1710,"æ´ĭ":1711,"è¯Ħè®º":1712,"çķ¥":1713,"æ±½":1714,"åªĴ":1715,"çĥ¤":1716,"ä¸´":1717,"ç¼º":1718,"åĽ°":1719,"ä¸Ģä½į":1720,"åį¡":1721,"è·ĳ":1722,"æĿ¥è¯´":1723,"çĵ":1724,"èĥĮ":1725,"åı¶":1726,"åĨ°":1727,"æĢİä¹Ī":1728,"å»ºç«ĭ":1729,"ç¼ĸè¾ĳ":1730,"ä¸°å¯Į":1731,"åĪĽéĢł":1732,"æĶ¿åºľ":1733,"åİŁåĽł":1734,"æĻ®":1735,"å½©":1736,"ä»·åĢ¼":1737,"èĩªçĦ¶è¯Ńè¨Ģå¤ĦçĲĨ":1738,"è¯¦ç»Ĩ":1739,"æĿĥ":1740,"åĿļ":1741,"èĵĿ":1742,"æł¡":1743,"çļĦæī":1744,"æ°´æŀľ":1745,"æ¯ĶèµĽ":1746,"åĳ¼":1747,"æĽ´å¤ļçļĦ":1748,"çļĦç¾İ":1749,"åĽłç´ł":1750,"çĶŁæĢģ":1751,"è¡¨æĺİ":1752,"å¤ļå°ĳ":1753,"ä½ľèĢħ":1754,"è¯Ńæ³ķ":1755,"äº²":1756,"èľ":1757,"æĸĩæ¡Ī":1758,"æĹ¶åĢĻ":1759,"ä¹ĭéĹ´çļĦ":1760,"è¯ĬæĸŃ":1761,"ç¬Ķ":1762,"æĶ¹åıĺ":1763,"æĹı":1764,"ç»Ħç»ĩ":1765,"åħ¬åĽŃ":1766,"åĩĨå¤ĩ":1767,"ä»¥ä¸ĭæĸĩæľ¬":1768,"è¿ĺåı¯ä»¥":1769,"åĬŀ":1770,"å³":1771,"èĴ":1772,"æľºä¼ļ":1773,"é¢ĺçĽ®":1774,"ä½ı":1775,"ä¿ĥ":1776,"é¢Ĺ":1777,"çļĦæĥħæĦŁ":1778,"çªģ":1779,"æĿĲæĸĻ":1780,"çĶŁäº§":1781,"çĽĳ":1782,"ç¼ĵ":1783,"éĴŁ":1784,"åĲįç§°":1785,"è¿İ":1786,"é£İæł¼":1787,"ç»ĵæŀĦ":1788,"çķĻ":1789,"å°¼":1790,"çĻ¾":1791,"çļĦæĸ¹æ³ķ":1792,"å½ĵåľ°":1793,"å¹´è½»":1794,"ç»ıéªĮ":1795,"å®ĥçļĦ":1796,"çī¹å¾ģ":1797,"åıĺå¾Ĺ":1798,"çĸ«":1799,"æ³¢":1800,"äº®":1801,"çłģ":1802,"é£Łåĵģ":1803,"çĤ¼":1804,"è¡Įä¸ļ":1805,"åķĨåĵģ":1806,"äº«åıĹ":1807,"å¤§éĩı":1808,"é¢ľèī²":1809,"å¯»æī¾":1810,"åªĴä½ĵ":1811,"å¦ĤæŀľæĤ¨":1812,"è¡¡":1813,"å¼Ĥ":1814,"å¿ĥçĲĨ":1815,"çļĦæµ":1816,"ç½Ĺ":1817,"çļĦæĸĩæľ¬":1818,"éĿĴ":1819,"æĭŁ":1820,"æľ¨":1821,"ĠæĪĳ":1822,"åĤ":1823,"è®¨è®º":1824,"è¡ĮåĬ¨":1825,"è´£":1826,"çļ®":1827,"æ´²":1828,"åĲ§":1829,"é¡»":1830,"è´ŁéĿ¢":1831,"ä¸Ģå®ļ":1832,"åħħæ»¡":1833,"åıĤåĬł":1834,"å¨ģ":1835,"ä¸ºä»Ģä¹Ī":1836,"ĥåľ":1837,"âĢĿãĢĤ":1838,"å¼Ģåıĳ":1839,"è¯ĳ":1840,"åľ¨è¿Ļä¸ª":1841,"èĳĹåĲį":1842,"ä»·æł¼":1843,"æ¯ıä¸ªäºº":1844,"åŀĥåľ":1845,"åŀĥåľ¾":1846,"ä¼¤":1847,"éĥ¨çĶµå½±":1848,"æ¯ıå¤©":1849,"ä¸Ńå¿ĥ":1850,"å·¥åħ·":1851,"çŁ¥è¯Ĩ":1852,"ĊĊ":1853,"ãĢĤ\"":1854,"æ±½è½¦":1855,"ä¸ĢæŃ¥":1856,"è®¾å¤ĩ":1857,"æ¯į":1858,"ç¾¤":1859,"æ»©":1860,"åħ´è¶£":1861,"åĩºäºĨ":1862,"èĶ¬":1863,"ç´§":1864,"åĮĹäº¬":1865,"åľºæĻ¯":1866,"ä½ľåĵģ":1867,"åĵģçīĮ":1868,"ä¸ĵä¸ļ":1869,"ä»į":1870,"æĶ¹åĸĦ":1871,"åľŁ":1872,"éĤ®":1873,"è¿Ļä¸ªéĹ®é¢ĺ":1874,"çļĦæ¸":1875,"æĽ¿":1876,"çļĦæķħäºĭ":1877,"è®²è¿°":1878,"è¿Ļåı¥è¯Ŀ":1879,"ç¾İä¸½":1880,"çļĦæŃ":1881,"çļĦæĶ":1882,"å¸®æĪĳ":1883,"éĩİ":1884,"èĪĴéĢĤ":1885,"åĪĽæĸ°":1886,"éĺ¿":1887,"çľł":1888,"ä¸ĢçĽ´":1889,"æīĭæľº":1890,"ç§ĺ":1891,"åº§":1892,"æ¼«":1893,"æ·±åº¦":1894,"è¯¢":1895,"æĪĳä¼ļ":1896,"åĩ»":1897,"çļĦçĶµå½±":1898,"æĶ¾æĿ¾":1899,"é¡¹çĽ®":1900,"åŃ©åŃĲ":1901,"èĥľ":1902,"çģµ":1903,"çŃĳ":1904,"éĢłæĪĲ":1905,"æħ¢":1906,"éĢĲ":1907,"å·ŀ":1908,"è¶ĭ":1909,"éĩįæĸ°":1910,"19":1911,"éĩĳèŀį":1912,"è§īå¾Ĺ":1913,"å·¨":1914,"ä¼ĳ":1915,"çł´":1916,"ä»¥ä¸ĭæĺ¯":1917,"çĩ":1918,"äºĭæĥħ":1919,"åĲ¸å¼ķ":1920,"åĪ¤æĸŃ":1921,"åĨ³å®ļ":1922,"èģĬ":1923,"èĶ¬èıľ":1924,"éĢģ":1925,"å½ķ":1926,"æ¤įçī©":1927,"çļĦçŁ":1928,"çĹĩ":1929,"èĢĮä¸Ķ":1930,"çĿ¡":1931,"ä¸ŃæıĲåıĸåĩº":1932,"è¯·éĹ®":1933,"èŃ¦":1934,"æķ°åŃĹ":1935,"åį°":1936,"åĨĽ":1937,"éĶ»":1938,"åįı":1939,"å·®":1940,"åī©":1941,"åı¦å¤ĸ":1942,"éļĲ":1943,"éĶ»çĤ¼":1944,"ä½³":1945,"æŃ¢":1946,"é©¶":1947,"ä¸Ģæ¬¡":1948,"æ¸Ĳ":1949,"æĢ§çļĦ":1950,"çľĭåĪ°":1951,"å»ºçŃĳ":1952,"ç¿»è¯ĳ":1953,"å°Ĭ":1954,"éĩĩçĶ¨":1955,"Ġ\"":1956,"æľīä»Ģä¹Ī":1957,"æ²³":1958,"éĶĢåĶ®":1959,"æĪĳåı¯ä»¥":1960,"åı¯æĮģç»Ń":1961,"çºª":1962,"æĩ":1963,"çľ¼":1964,"è¶ĭåĬ¿":1965,"å¿ħé¡»":1966,"èª":1967,"é¢ĳ":1968,"æ°§":1969,"ç®Ģæ´ģ":1970,"æĸĩç«łä¸Ń":1971,"å°Ĩåħ¶":1972,"æ¢¦":1973,"Ġå¥½çļĦ":1974,"åĽ¢éĺŁ":1975,"æĺ¨":1976,"ä¸įä¼ļ":1977,"éĴ±":1978,"æĿ¿":1979,"é©¾":1980,"ç»ª":1981,"ç§ģ":1982,"åĪ¶å®ļ":1983,"ä»¥ä¸Ĭ":1984,"åĬ©äºİ":1985,"åį«":1986,"åĵĪ":1987,"å¤įæĿĤ":1988,"åĪĿ":1989,"çļĦçł":1990,"å¿«éĢŁ":1991,"åĬ±":1992,"åľ°åĮº":1993,"çī¹çĤ¹":1994,"èĩªçĶ±":1995,"æķ°åŃ¦":1996,"è¿Ļæ®µæĸĩæľ¬":1997,"çī¹åĪ«":1998,"æ¶ī":1999,"ä¸Ģåıª":2000,"éĥ½æľī":2001,"ä»£è¡¨":2002,"å±ŀäºİ":2003,"çĦ¶èĢĮ":2004,"æĥ³è¦ģ":2005,"åĨľ":2006,"çļĦæĳ":2007,"æĺ¯åľ¨":2008,"æĸĩåŃĹ":2009,"æĳĦ":2010,"èģĮä¸ļ":2011,"æĥ¯":2012,"çļĦæ²":2013,"è´¢":2014,"å¿Ĺ":2015,"è¡Ģ":2016,"çĽ®åīį":2017,"èĹ":2018,"ä¸ºæĤ¨":2019,"è¯Ħä»·":2020,"çĸĳ":2021,"å®ŀä½ĵ":2022,"æĲŃ":2023,"ä¼¦":2024,"ä¾Ŀ":2025,"éĻįä½İ":2026,"åĨ·":2027,"éĴĪ":2028,"å°ļ":2029,"éĺ³åħī":2030,"ç»ıåİĨ":2031,"å²ģ":2032,"å°½ç®¡":2033,"åºķ":2034,"åĲĪä½ľ":2035,"å©":2036,"æĬ¥éģĵ":2037,"åħ¬åı¸çļĦ":2038,"å¾Īå¥½":2039,"åı¯ä»¥éĢļè¿ĩ":2040,"çļĦçĶŁæ´»":2041,"æ·»":2042,"ä¸įè¦ģ":2043,"éĤ®ä»¶":2044,"æĺ¯æĮĩ":2045,"ç²ī":2046,"çļĦæĮ":2047,"äººå·¥æĻºèĥ½åľ¨":2048,"åĬłå¼º":2049,"çĽĸ":2050,"ç»§":2051,"åįļ":2052,"ç®ĢçŁŃ":2053,"æķ°éĩı":2054,"çī©è´¨":2055,"ç¼ĸåĨĻ":2056,"ä¿ĥè¿Ľ":2057,"ä½łèĥ½":2058,"æĥĬ":2059,"çīĪ":2060,"åħ±åĲĮ":2061,"çļĦæĦŁ":2062,"ç¾İé£Ł":2063,"è®©æĪĳ":2064,"å¼ºè°ĥ":2065,"è¿ĻéĩĮ":2066,"çļĦå»ºè®®":2067,"ç»Ļå®ļçļĦæĸĩæľ¬":2068,"æ±ĩ":2069,"æľīåĬ©äºİ":2070,"ä¸ĬæľĢ":2071,"è¿Ļéĥ¨çĶµå½±":2072,"å¹¸":2073,"åĪļ":2074,"å°Ħ":2075,"çļĦæ¯":2076,"æĹ¨":2077,"ä¹łæĥ¯":2078,"åŁºç¡":2079,"è°¢è°¢":2080,"åŁºç¡Ģ":2081,"éĩįåĨĻ":2082,"åıĮ":2083,"æľīå¾Īå¤ļ":2084,"ç¤¼":2085,"èģĶç½ĳ":2086,"æľīäºĽ":2087,"èĻļ":2088,"æķ´ä¸ª":2089,"ä¸ĢåĲį":2090,"ç§»":2091,"ä½¿å¾Ĺ":2092,"èĪŀ":2093,"åĨ³çŃĸ":2094,"éĵģ":2095,"åĬĽåĴĮ":2096,"åį´":2097,"åĮ»åŃ¦":2098,"Ġç»Ļå®ļ":2099,"äº¤æµģ":2100,"å½¢å¼ı":2101,"åį±":2102,"ä¸įéĶĻ":2103,"å±Ģ":2104,"çļĦæķ°æį®":2105,"æĬĢèĥ½":2106,"å¡ĳ":2107,"âĢĶ":2108,"åįĪ":2109,"èĮ¶":2110,"è¿Ļæĺ¯ä¸Ģ":2111,"æĤ£èĢħ":2112,"ç¥¨":2113,"å®ĩ":2114,"åŁºæľ¬":2115,"æľ¬æĸĩ":2116,"Ġ-":2117,"æĬĢå·§":2118,"æľºåĻ¨äºº":2119,"å¯Ł":2120,"å¹»":2121,"çļĦæı":2122,"æ¯Ĵ":2123,"èģĶç³»":2124,"çļĦç¤":2125,"è¯´æĺİ":2126,"çī¹å®ļ":2127,"åı«":2128,"çŃīæĸ¹éĿ¢":2129,"èķ":2130,"ä»¤äºº":2131,"æĭħ":2132,"æİ¢è®¨":2133,"åķĬ":2134,"å¢ŀå¼º":2135,"é¥Ń":2136,"åĪĨéĴŁ":2137,"æĢĿèĢĥ":2138,"è¿ĩç¨ĭä¸Ń":2139,"ç¹":2140,"åįĥ":2141,"æ¯Ľ":2142,"åĸĿ":2143,"çĭ¬çī¹":2144,"è®©äºº":2145,"æıĲåĪ°":2146,"ä¸ªèĭ¹æŀľ":2147,"å®£":2148,"ä½įç½®":2149,"èĢģå¸Ī":2150,"å³°":2151,"ç«ŀ":2152,"è±Ĩ":2153,"çº³":2154,"æ¬¢è¿İ":2155,"è¯ŃéŁ³":2156,"èĸ":2157,"ç¬¬äºĮ":2158,"éŀ":2159,"æĬ½":2160,"ä»ĺ":2161,"å¥¥":2162,"æ©Ļ":2163,"åıªæľī":2164,"åĿĲ":2165,"éĢŁåº¦":2166,"ä»¥ä¾¿":2167,"è¡ĮæĺŁ":2168,"ç«¯":2169,"ç»Ŀ":2170,"æĸĩåŃ¦":2171,"éĢı":2172,"è¿Ľä¸ĢæŃ¥":2173,"èģļ":2174,"æĦŁè§ī":2175,"è·Ł":2176,"è¯¾":2177,"è¾ĵåĩº":2178,"å®¹æĺĵ":2179,"æĦŁè°¢":2180,"ç¤¾äº¤åªĴä½ĵ":2181,"å½¢æĪĲ":2182,"æī§":2183,"çģ¾":2184,"æŃ£éĿ¢":2185,"ä¹ħ":2186,"çļĦæ°´":2187,"ä½Ļ":2188,"é¡º":2189,"çļĦçľ":2190,"æĦ¿":2191,"çĦ¦":2192,"é¹":2193,"é©¾é©¶":2194,"çĮ®":2195,"ç»ĦæĪĲ":2196,"ç¬ĳ":2197,"è¿Ļæĺ¯ä¸Ģä¸ª":2198,"å®ŀéĻħ":2199,"æ¶īåıĬ":2200,"çıŃ":2201,"å¤§åĪ©":2202,"æ·±åº¦åŃ¦ä¹ł":2203,"çĥĪ":2204,"åĪĽæĦı":2205,"çļĦæĬĢæľ¯":2206,"è¿Ļä¸Ģ":2207,"åģ¥èº«":2208,"èĪ¬":2209,"èĪª":2210,"æ¦Ĥæĭ¬":2211,"åįĬ":2212,"ç»ĥä¹ł":2213,"åģļåĩº":2214,"åŃ¦æł¡":2215,"é¾Ļ":2216,"çļĦä¸»é¢ĺ":2217,"ä¸įåı¯":2218,"æĿ¡ä»¶":2219,"åıĺæļĸ":2220,"äººåĳĺ":2221,"åĲįåŃĹ":2222,"é¼ĵ":2223,"æıĲä¾ĽäºĨ":2224,"èĲ¥åħ»":2225,"ç»§ç»Ń":2226,"çļĦæĹ¶éĹ´":2227,"ç¼ĸç¨ĭ":2228,"åĳĺå·¥":2229,"åĲįè¯į":2230,"çİĽ":2231,"æĦıè¯Ĩ":2232,"åı¯ä»¥åľ¨":2233,"éĵ¾":2234,"æķħ":2235,"ç»ıå¸¸":2236,"é«ĺçļĦ":2237,"æĸ¹åĲĳ":2238,"è´Ńçī©":2239,"èĥĮæĻ¯":2240,"èĩªæĪĳ":2241,"åĨ¬":2242,"éĢĤå½ĵ":2243,"æĦıä¹ī":2244,"éĵ¶":2245,"æ°´å¹³":2246,"å¤ļä¸ª":2247,"èĮĥåĽ´":2248,"é¢Ŀ":2249,"çļĦå¤©æ°Ķ":2250,"æĭ¿":2251,"å¤ļç§į":2252,"è¯ĹæŃĮ":2253,"Ġä¸º":2254,"åĽ¾åĥı":2255,"Ġç»ĻæĪĳ":2256,"åħ°":2257,"ä¸¥éĩį":2258,"å®ĺ":2259,"åĳ¼åĲ¸":2260,"çī©åĵģ":2261,"ä¼´":2262,"æĮīçħ§":2263,"éŀĭ":2264,"å¦Ĥä¸ĭ":2265,"åºĶå¯¹":2266,"è¿·":2267,"çļĦå°ı":2268,"å®ł":2269,"èĲ¨":2270,"å¸¸è§ģ":2271,"å¤ıå¤©":2272,"æ¸ħæĻ":2273,"æ»¡è¶³":2274,"ç¢³":2275,"åĲĮæĹ¶ä¹Ł":2276,"è½¯ä»¶":2277,"å¹³è¡¡":2278,"æ´ŀ":2279,"å¯¹è¯ĿåĨħå®¹":2280,"æľ«":2281,"é¡¾":2282,"çŁŃè¯Ń":2283,"æĬ±":2284,"åİ»äºĨ":2285,"ä¼ļè®®":2286,"ä¼°":2287,"éª¤":2288,"ç±»åĪ«":2289,"æ£ĢæŁ¥":2290,"çļĦçĪ":2291,"åĢĭ":2292,"åĭĩ":2293,"ä¸ĭæĿ¥":2294,"15":2295,"æĽ¾":2296,"çĨŁ":2297,"ç»ıåħ¸":2298,"éĽª":2299,"çºł":2300,"æľ¬ä¹¦":2301,"ç¹ģ":2302,"èµı":2303,"æĲľ":2304,"å¼ķèµ·":2305,"æıĲåĪ°äºĨ":2306,"äºĭå®ŀ":2307,"ç©ºæ°Ķ":2308,"æľĹ":2309,"çļĦæłĩ":2310,"ä½įäºİ":2311,"åŃ¤":2312,"åģı":2313,"åıĤä¸İ":2314,"åĿı":2315,"è¸":2316,"æ´Ĺ":2317,"è¯»èĢħ":2318,"åħĥç´ł":2319,"éŃĶ":2320,"çļĦåħ³éĶ®":2321,"æĬķèµĦ":2322,"çĶµè§Ĩ":2323,"æĦī":2324,"å½ĵçĦ¶åı¯ä»¥":2325,"ä»Ģä¹Īæĺ¯":2326,"æ³³":2327,"åķĨä¸ļ":2328,"æĹ¥å¸¸":2329,"ç¨³":2330,"æĽ´å¥½çļĦ":2331,"æĺ¨å¤©":2332,"è°Ī":2333,"åĪĨäº«":2334,"ç§ĳåŃ¦å®¶":2335,"éĿ¢ä¸´":2336,"çľģ":2337,"åĩºæĿ¥":2338,"çļĦçłĶç©¶":2339,"æŁĶ":2340,"çķħ":2341,"å§Ĩ":2342,"åĢ¼å¾Ĺ":2343,"çļĦæĸ¹å¼ı":2344,"æ¸©åº¦":2345,"çĶľ":2346,"æ²ī":2347,"è·Ŀ":2348,"åģľ":2349,"æİĴæĶ¾":2350,"è´µ":2351,"éĢĶ":2352,"æ·»åĬł":2353,"è¿ĩåİ»":2354,"å®łçī©":2355,"åĬĽéĩı":2356,"éĢīé¡¹":2357,"é¥°":2358,"æľīçĿĢ":2359,"çĨĬ":2360,"éħ±":2361,"è¶ħè¿ĩ":2362,"æķĪæŀľ":2363,"èĤ¡":2364,"è°ģ":2365,"çİ°å®ŀ":2366,"å²Ľ":2367,"åı£æĦŁ":2368,"éħ¸":2369,"å°Ĩä¼ļ":2370,"éĻĪ":2371,"ç³»åĪĹ":2372,"ï¼ģ<|":2373,"åĽ½å®¶":2374,"çļĦå·¥ä½ľ":2375,"çļĦç¬":2376,"ç¾İåĳ³":2377,"ä¼½":2378,"ï¼ĮâĢľ":2379,"æŃ»":2380,"å¹³åĿĩ":2381,"å¥ĸ":2382,"æĴŃ":2383,"è¿ĽæŃ¥":2384,"éľ²":2385,"å¤«":2386,"åĸľæ¬¢çļĦ":2387,"éĿł":2388,"æ¬§":2389,"ç³ķ":2390,"æ£®":2391,"å¿ĺ":2392,"å¤§åŃ¦":2393,"äººçī©":2394,"æİĮ":2395,"å®Ļ":2396,"ç¥ŀç»ı":2397,"çļĦæ®":2398,"åĪĽå»º":2399,"åħ¨çĲĥåıĺæļĸ":2400,"éĢĤåºĶ":2401,"èĨ":2402,"çŃīé¢ĨåŁŁ":2403,"éĴĪå¯¹":2404,"æĺİå¤©":2405,"åŁ¹":2406,"å¿Ĩ":2407,"è´§":2408,"12":2409,"çļĦæĥħåĨµ":2410,"äºĴèģĶç½ĳ":2411,"æľīä¸Ģä¸ª":2412,"ä¹īè¯į":2413,"è°ĥæķ´":2414,"çļĦæľĢ":2415,"å¥Ĺ":2416,"å®ĩå®Ļ":2417,"åĨĻä½ľ":2418,"ä¹³":2419,"éĿ©":2420,"çĽ¸åĲĮ":2421,"è¿Ļä¸ªåı¥åŃĲ":2422,"åıĸå¾Ĺ":2423,"çļĦåľ°æĸ¹":2424,"æĸĩæľ¬ä¸Ń":2425,"åĲĪéĢĤ":2426,"ľä¼½":2427,"ä¿®æĶ¹":2428,"30":2429,"çļĦæ´":2430,"è§Ĩè§ī":2431,"è®©æĪĳä»¬":2432,"æ¸ħæĻ°":2433,"æĪĳä»¬åºĶè¯¥":2434,"çĪ±æĥħ":2435,"åī©ä¸ĭ":2436,"æ¥¼":2437,"çº½":2438,"å°ıæĹ¶":2439,"æ³ķå¾ĭ":2440,"éģĹ":2441,"æĥħèĬĤ":2442,"ä¸Ģé¦ĸ":2443,"é«ĺæķĪ":2444,"è¯·ä½ł":2445,"æ·±åħ¥":2446,"Ġæııè¿°":2447,"æļĹ":2448,"å½¢å®¹":2449,"æı¡":2450,"æī¿":2451,"èĲ¥éĶĢ":2452,"æ··":2453,"åĽłä¸ºå®ĥ":2454,"åĨĴ":2455,"åĪĽä½ľ":2456,"è·³":2457,"åĽ°éļ¾":2458,"æĹ¥æľ¬":2459,"åĢĴ":2460,"ä¸ªç³ĸæŀľ":2461,"åľ°çĤ¹":2462,"ç§Ģ":2463,"èĹı":2464,"æµ·æ´ĭ":2465,"ä»ĭç»įäºĨ":2466,"åºĬ":2467,"æ±Ł":2468,"çŃĸçķ¥":2469,"çļĦæ®µ":2470,"æ½ľ":2471,"éļĲç§ģ":2472,"è¶³å¤Ł":2473,"è¯įæ±ĩ":2474,"çĽ¸ä¼¼":2475,"æĹ¶å°ļ":2476,"æ±ī":2477,"æĹ¥æľŁ":2478,"ç£":2479,"å·§åħĭ":2480,"éģĵå¾·":2481,"å¡ĳæĸĻ":2482,"èĭ±è¯Ń":2483,"çļĦçĥ":2484,"çļĦå¤§":2485,"ç½ĳç«Ļ":2486,"æ±¤":2487,"æ£Ĵ":2488,"å·¦":2489,"ä¼ĺåĮĸ":2490,"100":2491,"çļĦæ°Ķ":2492,"çļĦæ®µèĲ½":2493,"å¿«ä¹Ĳ":2494,"çļĦç¤¾":2495,"ç»ĨèĬĤ":2496,"çļĦè¯Ŀ":2497,"æĵį":2498,"ä¾ĭåŃĲ":2499,"å¹¶åľ¨":2500,"éĨĴ":2501,"æ¸¸æ³³":2502,"å®Ī":2503,"ç»¿èī²":2504,"çĦ¦èĻĳ":2505,"æļ´":2506,"èį¯çī©":2507,"å®ĥä»¬çļĦ":2508,"åĪĨç±»ä¸º":2509,"éļľ":2510,"çĻ»":2511,"è´£ä»»":2512,"è¢ĭ":2513,"æľĿ":2514,"æĺ¯çļĦ":2515,"æıĲåĩº":2516,"åŃ£èĬĤ":2517,"ä¿Ŀåģ¥":2518,"æĹłè®º":2519,"æ¶Īè´¹":2520,"é¡¿":2521,"ä»įçĦ¶":2522,"ä¸Ģç¯ĩæĸĩç«ł":2523,"Ġç»Ļåĩº":2524,"çļĦæĹ¶åĢĻ":2525,"æĬ¥åĳĬ":2526,"æĶ¿çŃĸ":2527,"å¹¿åĳĬ":2528,"äººå·¥æĻºèĥ½çļĦ":2529,"çģ¯":2530,"ä»¥ä¸ĭæĺ¯ä¸Ģ":2531,"å¹³åı°":2532,"åĲĪçĲĨ":2533,"åı³":2534,"çļĦéĩįè¦ģæĢ§":2535,"ç»ŃåĨĻ":2536,"æĪĳåĸľæ¬¢":2537,"å¤ļæł·":2538,"æ¨¡å¼ı":2539,"å°ģ":2540,"å·§åħĭåĬĽ":2541,"çļĦå¥½":2542,"ç¥ŀç§ĺ":2543,"åĹ":2544,"ŁéĢļ":2545,"åĮĸçļĦ":2546,"è¡Ĺ":2547,"å¢ŀéķ¿":2548,"..":2549,"çĬ¯":2550,"ç®±":2551,"åľ¨å®¶":2552,"æµĵ":2553,"åıįåºĶ":2554,"ä¸įè¿ĩ":2555,"çĹĽ":2556,"ä¸Ģæł·":2557,"åľĨ":2558,"å°ıæĺİæľī":2559,"èĢĲ":2560,"å¹¸ç¦ı":2561,"æĮ¥":2562,"æĬĺ":2563,"å¸¦æĿ¥äºĨ":2564,"æĭ¼":2565,"åĺ":2566,"Ġå¯¹":2567,"ç¬¦åĲĪ":2568,"èĦĤ":2569,"æĶ¹è¿Ľ":2570,"çĳľä¼½":2571,"å¡Ķ":2572,"æĲľç´¢":2573,"çĬ¶æĢģ":2574,"åĨ²":2575,"åı£åĳ³":2576,"åĪ¶éĢł":2577,"çļĦæµ·":2578,"çĶµèĦĳ":2579,"å¿ħè¦ģ":2580,"ç¼ĵè§£":2581,"50":2582,"ä¹İ":2583,"æķĳ":2584,"æĦŁåıĹ":2585,"æĬĹ":2586,"çº½çº¦":2587,"çī©çĲĨ":2588,"Ġ=":2589,"è£¤":2590,"çº¸":2591,"æĺİç¡®":2592,"äººåĲį":2593,"è¯įè¯Ń":2594,"æŃ£ç¡®çļĦ":2595,"çļĦæĳĺè¦ģ":2596,"åħ¶æ¬¡":2597,"ä¸Ĭåįĩ":2598,"èĦļ":2599,"é¼ĵåĬ±":2600,"ç«ŀäºī":2601,"ç«¥":2602,"åį³åı¯":2603,"æĢ»æĺ¯":2604,"éĹ²":2605,"åľ°æĸ¹":2606,"åĬ¨ä½ľ":2607,"çļĦä¸»":2608,"æĥħç»ª":2609,"æł¸":2610,"å·¥ç¨ĭ":2611,"åĪĨç»Ļ":2612,"ç±į":2613,"æıĲä¾Ľä¸Ģä¸ª":2614,"æ½®":2615,"éĢĲæ¸Ĳ":2616,"çİ°è±¡":2617,"åıĹæ¬¢è¿İ":2618,"åĽ½éĻħ":2619,"è¿½æ±Ĥ":2620,"éĻĲåĪ¶":2621,"å®¶å±ħ":2622,"é»İ":2623,"æŁĲäºĽ":2624,"ä¹ĭåīį":2625,"åĩıè½»":2626,"è¾Ĩ":2627,"æ¬£":2628,"è´¡":2629,"æ°¸":2630,"ä¸ĸçºª":2631,"çħ®":2632,"æµĭè¯ķ":2633,"çĽĲ":2634,"åĳ³éģĵ":2635,"è·Ŀç¦»":2636,"æĻ¯çĤ¹":2637,"æıĲåįĩ":2638,"ä¸Ģåı¥è¯Ŀ":2639,"èĿ":2640,"18":2641,"å¤ªç©º":2642,"èĤ¤":2643,"åºĶçĶ¨äºİ":2644,"ä¸Ŀ":2645,"çĶŁæĢģç³»ç»Ł":2646,"æĲŃéħį":2647,"è°·":2648,"ä¸ĸçķĮä¸ĬæľĢ":2649,"çļĦé£Łçī©":2650,"±ä¹Ĳ":2651,"çĤº":2652,"åħ¬åħ±":2653,"æİ¨åĬ¨":2654,"ä¸ĭæĸĩ":2655,"è®©ä½ł":2656,"ä»¿":2657,"éĶħ":2658,"å®ŀéªĮ":2659,"åº¦åĴĮ":2660,"éĸ":2661,"åĵªä¸ª":2662,"ç»¼":2663,"ç¥Ŀ":2664,"æĻļä¸Ĭ":2665,"ä¸Ģå®¶":2666,"ä¸ªæĢ§":2667,"ä½¿åħ¶æĽ´åĬł":2668,"çº¢èī²":2669,"ç©ºéĹ´":2670,"å¼łä¸ī":2671,"çĶ¨æĿ¥":2672,"è§£åĨ³æĸ¹æ¡Ī":2673,"åĢĳ":2674,"æ±ł":2675,"æ©ĻåŃĲ":2676,"å¤ıåŃ£":2677,"æĪĲéķ¿":2678,"å¸ģ":2679,"æĦıæĢĿ":2680,"æĿĳ":2681,"çļĦåĨħå®¹":2682,"è´¡çĮ®":2683,"æĺ¯çĶ±":2684,"éĵħ":2685,"æ¹ĸ":2686,"çļĦæ³":2687,"çĽĺ":2688,"å±ķç¤º":2689,"çīĽå¥¶":2690,"ä¹ĺ":2691,"è¯Ħä¼°":2692,"èµŀ":2693,"åĲ«ä¹ī":2694,"ä¸¤ä¸ªåı¥åŃĲ":2695,"æ°Ķä½ĵ":2696,"å¿Ļ":2697,"è²":2698,"æľºæŀĦ":2699,"æŃ§":2700,"æĹ©ä¸Ĭ":2701,"__":2702,"æľªæĿ¥çļĦ":2703,"åİŁå§ĭ":2704,"åĬ³":2705,"å¥³æĢ§":2706,"çĬ¶åĨµ":2707,"å®«":2708,"å®Įåħ¨":2709,"æ±ģ":2710,"åĴĮåħ¶ä»ĸ":2711,"æī©":2712,"çļĦåİĨåı²":2713,"ãĢĤâĢĿ<|":2714,"ä¸ĢèĪ¬":2715,"åİļ":2716,"è°ĥæŁ¥":2717,"èİ·åıĸ":2718,"æķ£æŃ¥":2719,"åľ¨çº¿":2720,"å¥ĭ":2721,"å°Ĭéĩį":2722,"æĿ¥èĩª":2723,"çĶŁæ´»ä¸Ń":2724,"æĪ·å¤ĸ":2725,"åĤ¨":2726,"è®°å½ķ":2727,"è¿Ļå®¶":2728,"ç¯®":2729,"çĽ¸ä¿¡":2730,"åĮ»çĸĹä¿Ŀåģ¥":2731,"åĲ¯":2732,"ä¸ľè¥¿":2733,"æ»ĳ":2734,"çĽ´æİ¥":2735,"æĪĲæľ¬":2736,"ä¹Łä¼ļ":2737,"åĪĹè¡¨":2738,"åı¯èĥ½æĺ¯":2739,"æĬĢæľ¯çļĦ":2740,"æĦıåĳ³":2741,"æĺł":2742,"å°į":2743,"åħŃ":2744,"è¾¾åĪ°":2745,"çļĦæĢĿ":2746,"åĽŀçŃĶéĹ®é¢ĺ":2747,"ç½ª":2748,"å¥¹çļĦ":2749,"ä¸įçŁ¥éģĵ":2750,"çłĶ":2751,"è®ºæĸĩ":2752,"å¾Ħ":2753,"åºĶçĶ¨ç¨ĭåºı":2754,"æĦıå¤§åĪ©":2755,"ä¸Ĭæµ·":2756,"å¦Ī":2757,"éĵħç¬Ķ":2758,"åĨł":2759,"éĤ£éĩĮ":2760,"æĸ¹ä¾¿":2761,"çİī":2762,"åĪĨåĪ«":2763,"è¡¨è¾¾äºĨ":2764,"ç¼©":2765,"éĢĻ":2766,"çĥ§":2767,"åŃ¦ä¹łåĴĮ":2768,"ç»Ļä½ł":2769,"æĿ°":2770,"æŃ¥éª¤":2771,"æįŁ":2772,"èĳĹåĲįçļĦ":2773,"å·´é»İ":2774,"æ·±åĪ»":2775,"æĢ¥":2776,"éģį":2777,"ç¨³å®ļ":2778,"æ´¾":2779,"éº¦":2780,"èĽĭçĻ½":2781,"è¶³çĲĥ":2782,"åĽº":2783,"èĩ³å°ĳ":2784,"éĩıåŃĲ":2785,"ä¸Ģå¤©":2786,"åĩī":2787,"æĶ¹åĨĻ":2788,"æŀ¶":2789,"åı¯ä»¥ä½¿çĶ¨":2790,"è¿Ļç¯ĩ":2791,"æĸĹ":2792,"çĩĥ":2793,"æĸ°éĹ»æĬ¥éģĵ":2794,"æĦıåĳ³çĿĢ":2795,"æĽ¿æį¢":2796,"åĳĪ":2797,"çİ¯å¢ĥä¿ĿæĬ¤":2798,"é¥¼":2799,"åĪº":2800,"å®½":2801,"çĤĴ":2802,"åıĳå¸ĥ":2803,"åĮĸåŃ¦":2804,"éĻĦ":2805,"æŃī":2806,"è¡¨éĿ¢":2807,"ä½Ľ":2808,"åĿļæĮģ":2809,"å½ĵåīį":2810,"å¤©ç©º":2811,"ç±»ä¼¼":2812,"äººçĶŁ":2813,"åģ¥åº·çļĦ":2814,"éľĩ":2815,"Ġä½ł":2816,"æ°Ķæ¸©":2817,"ä¸Ģç»Ħ":2818,"æģ¶":2819,"æĿŁ":2820,"å¹¶ä¸į":2821,"åı¥åŃĲä¸Ń":2822,"èĩªè¡Į":2823,"æĶ»":2824,"çĽ¸åħ³çļĦ":2825,"ä»¥ç¡®ä¿Ŀ":2826,"åºŁ":2827,"åĶ±":2828,"éĽħ":2829,"ç»©":2830,"on":2831,"å¯Ĵ":2832,"æĤ¦":2833,"ä¿Ŀè¯ģ":2834,"çŃ¾":2835,"çļĦæ´»":2836,"è®¢":2837,"æ¯ıä¸ªæľĭåıĭ":2838,"çļĦä¸Ģä¸ª":2839,"åĪĨåĪ°":2840,"å°¤":2841,"å¹ħ":2842,"æİ¨å¹¿":2843,"çļĦç³":2844,"æ¶¦":2845,"è¡£æľį":2846,"æĪĳå¾Ī":2847,"åºĵ":2848,"çīĻ":2849,"ç»ĺ":2850,"éľĢè¦ģæ³¨æĦı":2851,"¡èĲ":2852,"çľŁæŃ£":2853,"åĬ¨è¯į":2854,"æī§è¡Į":2855,"ä¼ĺåĬ¿":2856,"æİī":2857,"æģĲ":2858,"æĢĿæĥ³":2859,"åı¯ä»¥è¢«":2860,"èĥ½éĩı":2861,"èĤĮ":2862,"èĭ¦":2863,"çĽĽ":2864,"æİ¥åıĹ":2865,"ç§ĳå¹»":2866,"å®ļä¹ī":2867,"æ¤Ĵ":2868,"ĠâĢľ":2869,"æ¨¡æĭŁ":2870,"ä¸Ģä¸ªäºº":2871,"çıį":2872,"çļĦæĸ°":2873,"åı¯æĮģç»Ńåıĳå±ķ":2874,"å¾ª":2875,"éªĳ":2876,"å®īæİĴ":2877,"ä¸ŃæľĢ":2878,"èĢĮä¸įæĺ¯":2879,"å¼ĥ":2880,"ç»ĵåĲĪ":2881,"çļĦæĻº":2882,"çļĦçĭ":2883,"æ£®æŀĹ":2884,"æĺİäºĨ":2885,"åıĳæĮ¥":2886,"åĴĮæĸĩåĮĸ":2887,"è½»æĿ¾":2888,"çļĦçĪ±":2889,"ä¸»ä¹ī":2890,"ä¸ĭåĪĹ":2891,"åĩºèī²":2892,"çļĦæıı":2893,"çĽ¸äºĴ":2894,"çļĦæĦıæĢĿ":2895,"çĿ¡çľł":2896,"å®¶äºº":2897,"æıĲä¾Ľä¸ĢäºĽ":2898,"èĤ¥":2899,"åħ±æľī":2900,"ä¼ĺç§Ģ":2901,"äºĨä¸ĢäºĽ":2902,"å®ļæľŁ":2903,"èĭı":2904,"å©ļ":2905,"åĪĹåĩº":2906,"äººç±»çļĦ":2907,"è©":2908,"åľ¨ä¸Ģèµ·":2909,"è·µ":2910,"å¨±ä¹Ĳ":2911,"å°¾":2912,"æĵįä½ľ":2913,"çļĦçģ":2914,"è§Ĥä¼Ĺ":2915,"æ³¨éĩį":2916,"çĥŁ":2917,"é«ĺåħ´":2918,"æīĢæľīçļĦ":2919,"æµģè¡Į":2920,"çĽ®çļĦåľ°":2921,"æĺ¯ä¸Ģéĥ¨":2922,"çµ":2923,"å¤§å®¶":2924,"çĶŁåŃĺ":2925,"ä¹Łæľī":2926,"èĽĭç³ķ":2927,"ä½łéľĢè¦ģ":2928,"ç¿°":2929,"çĽ¸å¯¹":2930,"æ¹¿":2931,"èī¯å¥½çļĦ":2932,"çļĦæ¦Ĥ":2933,"åĨĻä¸Ģç¯ĩ":2934,"éĿ¢å¯¹":2935,"ä¹¦ç±į":2936,"é¥®æĸĻ":2937,"èĥģ":2938,"éĢ»":2939,"æĹ¶ä»£":2940,"æĢ»ä¹ĭ":2941,"æĪĳè®¤ä¸º":2942,"åĿ¦":2943,"å®ľ":2944,"ç»ĵè®º":2945,"åĮ»çĸĹé¢ĨåŁŁ":2946,"è·ĳæŃ¥":2947,"è®¿":2948,"èĪ¹":2949,"é¾Ħ":2950,"ç¨ĭåº¦":2951,"ä¾Ĩ":2952,"åı¤è¯Ĺ":2953,"éĢĤéĩı":2954,"æľµ":2955,"çľŁçļĦ":2956,"çļĦäºĭæĥħ":2957,"åıªæĺ¯":2958,"è¯ļ":2959,"åŃ¤çĭ¬":2960,"é¢Ħéĺ²":2961,"åħ¶ä¸ŃçļĦ":2962,"çļĦæĢ»":2963,"æİ¨çĲĨ":2964,"æİĮæı¡":2965,"æĬ½åıĸ":2966,"éĤ£äºĽ":2967,"çĶļ":2968,"åĵº":2969,"è¿Ľåħ¥":2970,"å¨ģèĥģ":2971,"æ³¡":2972,"å¥ı":2973,"å¯»æ±Ĥ":2974,"ä¸ļåĬ¡":2975,"è°±":2976,"åĵ¥":2977,"åīįå¾Ģ":2978,"æľīåĵªäºĽ":2979,"æ¼Ķåĳĺ":2980,"æµģçķħ":2981,"è¿Ľè¡ĮåĪĨç±»":2982,"202":2983,"æĮĩåĩº":2984,"è§ĦåĪĴ":2985,"å®ŀè·µ":2986,"çĭ¬çī¹çļĦ":2987,"åĳ¨åĽ´":2988,"æĪĲè¯Ń":2989,"å¹´çļĦ":2990,"è¾£":2991,"ç»ıè¿ĩ":2992,"æ¸©æļĸ":2993,"ä½ĵèĤ²":2994,"çıł":2995,"éĩįçĤ¹":2996,"æŃ§è§Ĩ":2997,"çİĽä¸½":2998,"å£°éŁ³":2999,"æ¦Ĥå¿µ":3000,"ä»ĸåľ¨":3001,"æ°§åĮĸ":3002,"éĽ¶":3003,"ä¸Ńæĸĩ":3004,"åŃ¸":3005,"å¼ĢæĶ¾":3006,"åįģåĪĨ":3007,"å¾Ĺåĩº":3008,"éĢ»è¾ĳ":3009,"ç²¾ç¥ŀ":3010,"èķī":3011,"æĹ¨åľ¨":3012,"æ¶²":3013,"åĵªéĩĮ":3014,"çļĦçŁŃ":3015,"çº¦ç¿°":3016,"æ³°":3017,"çī©ä½ĵ":3018,"çĹħæ¯Ĵ":3019,"é¸¡èĽĭ":3020,"è¿ŀæİ¥":3021,"å¦Ļ":3022,"å¤ªéĺ³ç³»":3023,"èĩªåĬ¨åĮĸ":3024,"è§ĦåĪĻ":3025,"æľĢä½³":3026,"ä½¿åħ¶æĽ´":3027,"èĻļæĭŁ":3028,"éĥ½ä¼ļ":3029,"çļĦæĥ³":3030,"éķ¿åº¦":3031,"æĢĢ":3032,"ä¸Ģæ¬¾":3033,"èĩªåĬ¨é©¾é©¶":3034,"çļĦæĻ¯":3035,"æıĲåıĸåĩº":3036,"è´Ŀ":3037,"èº«ä½ĵåģ¥åº·":3038,"è½®":3039,"ä¸ĬéĿ¢":3040,"çĲĨè®º":3041,"æķ¬":3042,"èľľ":3043,"åĩĢ":3044,"éģµ":3045,"åĢ¾":3046,"èĵĿèī²":3047,"å´":3048,"é¦Ļèķī":3049,"çļĦé£İéĻ©":3050,"ä¹¡":3051,"äº¡":3052,"200":3053,"æĸ°é²ľ":3054,"æµ·æ»©":3055,"åħ³éĶ®ä¿¡æģ¯":3056,"åĲĦä¸ª":3057,"æĪĲä¸ºäºĨ":3058,"èĭ±åĽ½":3059,"æľīæīĢ":3060,"è¡¥":3061,"ç¾İå¥½çļĦ":3062,"èĦ±":3063,"æ··åĲĪ":3064,"åĵºä¹³":3065,"ä¼ĺçĤ¹":3066,"çĤİ":3067,"åĪĨä¸º":3068,"ï¼īï¼Į":3069,"æĺ¾ç¤º":3070,"è¿Ļæ¬¾":3071,"æĶ¾åľ¨":3072,"å¥³åŃ©":3073,"èĤ¯":3074,"åĨĻä¸Ģä¸ª":3075,"æĬ±æŃī":3076,"çĶ³":3077,"å·¥ä¸ļ":3078,"ä¸»äºº":3079,"ç§¯æŀģçļĦ":3080,"è´¥":3081,"çŁŃæĸĩ":3082,"éĹŃ":3083,"éº¼":3084,"æĺ¯ä¸ŃåĽ½":3085,"åį·":3086,"èªī":3087,"é«ĺåº¦":3088,"çļĦæ´»åĬ¨":3089,"å°ıåŃ¦":3090,"çĬ¬":3091,"æ²ŁéĢļ":3092,"æĸĩåĮĸåĴĮ":3093,"æĩĤ":3094,"ãĢĭãĢģ":3095,"ç¾İä¸½çļĦ":3096,"æ¡Į":3097,"è¿¹":3098,"èĩªè¡Įè½¦":3099,"æĺ¯ä¸Ģä½į":3100,"åħ«":3101,"åľ£":3102,"æ¾":3103,"XX":3104,"éĿ¢åĮħ":3105,"å«":3106,"ç®Ģè¦ģ":3107,"æĪĳåľ¨":3108,"è¯ŃéŁ³è¯ĨåĪ«":3109,"éĥģ":3110,"çļĦæııè¿°":3111,"éķĩ":3112,"ç¥ŀç»ıç½ĳç»ľ":3113,"çļĦæīĭ":3114,"æĭį":3115,"éĻĪè¿°":3116,"ï¼īãĢĤ":3117,"ä¹ĭåĲİ":3118,"æłĩåĩĨ":3119,"å¹³çŃī":3120,"æĹ¶æľŁ":3121,"ĠĠ":3122,"çļĦçŃĶæ¡Ī":3123,"èİĵ":3124,"ä¹ı":3125,"è§¦":3126,"åįļçī©":3127,"æĸĩç«łä¸ŃæıĲåıĸ":3128,"èĭĹ":3129,"åģ¥åº·é¥®é£Ł":3130,"æĸĩæľ¬åĨħå®¹":3131,"å»¶":3132,"éŃĶæ³ķ":3133,"åºĨ":3134,"æĹ¶éĹ´åĴĮ":3135,"ç¤¾åĮº":3136,"çļĦæĭ":3137,"æŁĲä¸ª":3138,"ç¬¬ä¸Ģ":3139,"å±ķçİ°":3140,"åĳ¨æľ«":3141,"æķ°æį®éĽĨ":3142,"ä»£çłģ":3143,"è½¬æį¢":3144,"è¯¾ç¨ĭ":3145,"èĢ³":3146,"æī¾åĩº":3147,"å·¦åı³":3148,"éª¨":3149,"é¢Ĩå¯¼":3150,"å¾ĹåĪ°äºĨ":3151,"åīĤ":3152,"ç§°ä¸º":3153,"è³":3154,"åı¤ä»£":3155,"ç®ĢåįķçļĦ":3156,"åĬĽçļĦ":3157,"çļĦæĢ§":3158,"æľŁéĹ´":3159,"å®Ĺ":3160,"æ¬£èµı":3161,"çļĦæİ¨":3162,"åĨįçĶŁ":3163,"åĨ¥":3164,"åĪĨéħį":3165,"ä¼ĳæģ¯":3166,"æĦŁåıĹåĪ°":3167,"è¯Ńè¨Ģæ¨¡åŀĭ":3168,"çļĦæķĪ":3169,"çĴ":3170,"çļĦæĮĳæĪĺ":3171,"è®²è¿°äºĨ":3172,"æĹ§":3173,"äº¿":3174,"æ¸ħæ´ģ":3175,"åĮºåĿĹ":3176,"æħ§":3177,"åĵģè´¨":3178,"å£®":3179,"çĪ±å¥½":3180,"çĶļèĩ³":3181,"ä»Ģéº¼":3182,"æĸĩæľ¬ä¸ŃçļĦ":3183,"çģ¾å®³":3184,"å®ĥåı¯ä»¥":3185,"å®ģ":3186,"è½½":3187,"æĺŁæľŁ":3188,"èĽĭçĻ½è´¨":3189,"åĨĴéĻ©":3190,"èĥ½åĲ¦":3191,"ä¸ĥ":3192,"ªæĺİ":3193,"åłĤ":3194,"å¯¿":3195,"è¡¨æ¼Ķ":3196,"å½Ĵç±»":3197,"åıĬæĹ¶":3198,"æĪ¿éĹ´":3199,"åĮĢ":3200,"å¤§æ°Ķ":3201,"æĸĩç«łä¸ŃæıĲåıĸåĩº":3202,"è¿Ļæľ¬ä¹¦":3203,"çĻĮ":3204,"çĭ¬ç«ĭ":3205,"åľ¨ä¸Ģä¸ª":3206,"æĹĭ":3207,"ãĢĭãĢģãĢĬ":3208,"å°¤åħ¶":3209,"é¼ł":3210,"åħ·ä½ĵçļĦ":3211,"âĢĶâĢĶ":3212,"çĶŁæ´»æĸ¹å¼ı":3213,"ç§įæĹı":3214,"æĢĿç»´":3215,"æĿĢ":3216,"æĥħåĨµä¸ĭ":3217,"çľĭçĶµå½±":3218,"èĤª":3219,"èĦĤèĤª":3220,"èĮĦ":3221,"é»ĺ":3222,"å¼ºè°ĥäºĨ":3223,"çĽ¸åºĶ":3224,"æ®Ĭ":3225,"«èĲ¨":3226,"é¢Ĺç³ĸæŀľ":3227,"åĵºä¹³åĬ¨çī©":3228,"éĻ¤äºĨ":3229,"æľĢå¥½çļĦ":3230,"å®ĥæĺ¯":3231,"å®¾":3232,"å¹¶æıĲä¾Ľ":3233,"æķı":3234,"å½¢å®¹è¯į":3235,"çļĦåİŁåĽł":3236,"è¿ª":3237,"è®¤è¯Ĩ":3238,"è¯º":3239,"é»ĳæ´ŀ":3240,"å®¤æ°Ķä½ĵ":3241,"çĶŁæĪĲåķĨåĵģ":3242,"æ¦":3243,"äºĭçī©":3244,"æĭĮ":3245,"èĳ±":3246,"èļ":3247,"çļĦèĥ½åĬĽ":3248,"ç§įç±»":3249,"åľ¨æľªæĿ¥":3250,"æıĲä¾ĽçļĦ":3251,"æĺĵäºİ":3252,"åĢŁ":3253,"å¼ºçĥĪ":3254,"ä¼ĳéĹ²":3255,"äºĴåĬ¨":3256,"æ¶Īè´¹èĢħ":3257,"å½¼":3258,"æ»¡æĦı":3259,"äºĨä¸Ģç§į":3260,"æľĢæĸ°":3261,"å¼¹":3262,"çļĦç©":3263,"èĦı":3264,"ä½ĨæĪĳ":3265,"éĢĢ":3266,"æİ¢è®¨äºĨ":3267,"ä¹Ŀ":3268,"è°ĵ":3269,"çļĦä¸»è¦ģè§ĤçĤ¹":3270,"è¹":3271,"æľīè¶£çļĦ":3272,"æ¼Ĥ":3273,"äº¤æĺĵ":3274,"æľĢå¥½":3275,"æĹ¢":3276,"å¸Ŀ":3277,"åįļçī©é¦Ĩ":3278,"æ¶Īæŀģ":3279,"æľĥ":3280,"åĴ¨":3281,"å·Ŀ":3282,"è¿ĺéľĢè¦ģ":3283,"æ¯ıä¸ªäººéĥ½":3284,"èĢĹ":3285,"å¹´é¾Ħ":3286,"ç¶":3287,"å®Įæķ´":3288,"çĸ«æĥħ":3289,"æİ¥ä¸ĭæĿ¥":3290,"éĢĴ":3291,"è´ŁéĿ¢å½±åĵį":3292,"å¤ļçļĦ":3293,"çļĦç³ĸ":3294,"è¾ħ":3295,"è¿ħ":3296,"å®£ä¼ł":3297,"çĶŁéķ¿":3298,"è§Ĩé¢ĳ":3299,"è®¨è®ºäºĨ":3300,"é¡¶":3301,"çĪ¶":3302,"èº«å¿ĥ":3303,"çªĹ":3304,"ä¹Łå¾Ī":3305,"çļĦç¬¬":3306,"æĢ§èĥ½":3307,"ä½łå¥½":3308,"æ³ķåĽ½":3309,"çľĭèµ·æĿ¥":3310,"åħħåĪĨ":3311,"çĵľ":3312,"èģĬå¤©":3313,"è¯Ńæ³ķéĶĻè¯¯":3314,"åĴ¨è¯¢":3315,"ç»ķ":3316,"æķ¢":3317,"è§Ī":3318,"ç¿»è¯ĳæĪĲ":3319,"æĺŁçĲĥ":3320,"äºĨè®¸å¤ļ":3321,"éķ¿æľŁ":3322,"ä¸Ĭä¸ĭæĸĩ":3323,"çļĦçİ¯å¢ĥ":3324,"åĲ¬èµ·æĿ¥":3325,"ä¸Ģæľ¬":3326,"èģªæĺİ":3327,"æĢ»ç»Ł":3328,"æĥł":3329,"çĶŁæĹ¥":3330,"ä»¥ä¸ĭæ®µèĲ½":3331,"éĺ¶":3332,"å¿ĥæĥħ":3333,"çļĦçĹ":3334,"æĪĳæĹłæ³ķ":3335,"åĵ²":3336,"è§Ĥå¯Ł":3337,"çļĦç²":3338,"èī²å½©":3339,"çķª":3340,"éº»":3341,"åıĺå¾ĹæĽ´åĬł":3342,"é½":3343,"çļĦæīĢ":3344,"èį£":3345,"ï¼ŁâĢĿ":3346,"å¹´æĿ¥":3347,"ä¼łæĴŃ":3348,"è§£åĨ³éĹ®é¢ĺ":3349,"åĮºåĿĹéĵ¾":3350,"æİ¨åĩº":3351,"çļĦæ¯Ķ":3352,"çļĦçŁ¥":3353,"æĺİæĺ¾":3354,"ç§»åĬ¨":3355,"çļĦæķ°éĩı":3356,"éĻĨ":3357,"éĿŀå¸¸å¥½":3358,"ç»´æĬ¤":3359,"çľĭçľĭ":3360,"é¢ĦæĬ¥":3361,"åĳĪçİ°":3362,"èī¾":3363,"çļĦç¥":3364,"å¹¶æ²¡æľī":3365,"çº¯":3366,"æĪĳéľĢè¦ģ":3367,"éķľ":3368,"å¯¹çİ¯å¢ĥ":3369,"å·¨å¤§":3370,"çĶ²":3371,"æĻºèĥ½å®¶å±ħ":3372,"ä½łä»¬":3373,"å®¡":3374,"çĸ²":3375,"çĺ":3376,"çĽ´åĪ°":3377,"åį±éĻ©":3378,"æĳĦåħ¥":3379,"éĽ·":3380,"ï¼ļãĢĬ":3381,"çªģçĦ¶":3382,"ĠæıĲåıĸ":3383,"åĲĮä¹īè¯į":3384,"çļĦè¡Įä¸º":3385,"Ġ2":3386,"èī¯å¥½":3387,"æĭ¼åĨĻ":3388,"çļĦæ±":3389,"è¸ª":3390,"æľĢåĸľæ¬¢çļĦ":3391,"è¿ĩåº¦":3392,"ç¾İåħĥ":3393,"åĴĮç¤¾ä¼ļ":3394,"åĮºåŁŁ":3395,"å¡«":3396,"è¿Ļç¯ĩæĸĩç«łä¸Ń":3397,"ç¡¬":3398,"è§Ħå¾ĭ":3399,"æĤ¨éľĢè¦ģ":3400,"èĻ«":3401,"éĵ¶è¡Į":3402,"çļĦéĢīæĭ©":3403,"æŃ¦":3404,"åĨ¥æĥ³":3405,"çī¹æ®Ĭ":3406,"æł·çļĦ":3407,"å±ĭ":3408,"éĴ¢":3409,"åĶĲ":3410,"åĽŀå®¶":3411,"çļĦçĥŃ":3412,"æį·":3413,"çĽ®çļĦ":3414,"âĢ¦":3415,"æĶ¯ä»ĺ":3416,"çļĦçĿ":3417,"ä¸°å¯ĮçļĦ":3418,"çļĦç¼":3419,"éļıæĹ¶":3420,"å°ıçĭĹ":3421,"çĶ°":3422,"åīįæĻ¯":3423,"çĵ¶":3424,"åı¯çĪ±":3425,"èħ¿":3426,"å»ºè®¾":3427,"çĶŁæĪĲä¸Ģæ®µ":3428,"äººæ°ĳ":3429,"çĶ¨çļĦ":3430,"å¤§èĩªçĦ¶":3431,"Ġ3":3432,"åĽŀæĶ¶":3433,"ä¸ĭåįĪ":3434,"åı¹":3435,"ä»ĸä»¬çļĦå¯¹è¯ĿåĨħå®¹":3436,"å¹ķ":3437,"çļĦæ¸©":3438,"åĦ¿ç«¥":3439,"æµ®":3440,"æ·¡":3441,"åŃĲçļĦ":3442,"åĪĨæĪĲ":3443,"éĩįå¤į":3444,"éĹª":3445,"ä¸ºæĪĳ":3446,"èĦ¸":3447,"åĪ°è¾¾":3448,"æĭĽ":3449,"åŁºåĽł":3450,"å¦ĤæŃ¤":3451,"åĪĽå»ºä¸Ģä¸ª":3452,"ç¾İå¥½":3453,"æĦīå¿«":3454,"æľīæ²¡æľī":3455,"åĵģç§į":3456,"æģ©":3457,"æĶ¾åħ¥":3458,"çļĦç¨":3459,"çļĦæ¸¸":3460,"æ´Ľ":3461,"åı¯åĨįçĶŁ":3462,"æľīè®¸å¤ļ":3463,"çĶµåŃĲéĤ®ä»¶":3464,"æĸ¼":3465,"å¡ŀ":3466,"ç¯®çĲĥ":3467,"æ¶µ":3468,"ç©¿çĿĢ":3469,"è¿Ŀ":3470,"æĪĳä»¬å°Ĩ":3471,"åľ¨äºİ":3472,"çī¹èī²":3473,"æīĺ":3474,"çļĦä¸Ģç§į":3475,"ç§ĭå¤©":3476,"èµ¢":3477,"çļĦæĥ³æ³ķ":3478,"è¢«è®¤ä¸º":3479,"çļĦæ¼":3480,"ĽåĽ´":3481,"çĶŁç´ł":3482,"æľĢå¤§":3483,"ä¿ĿæĬ¤çİ¯å¢ĥ":3484,"éŁ©":3485,"èĥŀ":3486,"è¿Ļé¡¹":3487,"åĵģå°Ŀ":3488,"çļĦæķĻ":3489,"åł¡":3490,"çļĦæīĢæľī":3491,"çļĦçĿ¡":3492,"é£ŁæĿĲ":3493,"å¹³éĿ¢":3494,"Ġæł¹æį®ç»Ļå®ļçļĦ":3495,"äºĪ":3496,"æķ°åŃ¦é¢ĺ":3497,"éļ¾ä»¥":3498,"éĤ£ä¸ª":3499,"çī©ç§į":3500,"æııè¿°äºĨ":3501,"éģĩåĪ°":3502,"åįł":3503,"é£İæĻ¯":3504,"çļĦéŁ³ä¹Ĳ":3505,"æĪĲå°±":3506,"æĻ´":3507,"è®°å¿Ĩ":3508,"æĪĲåĪĨ":3509,"åı¯ä»¥è®©":3510,"çļĦæŃĮ":3511,"çļĦç½":3512,"ä¸ĢæĿ¡":3513,"åįĸ":3514,"çĿĽ":3515,"Ġç¼ĸè¾ĳ":3516,"å°º":3517,"è§Ħæ¨¡":3518,"çļĦæĦŁè§ī":3519,"æª":3520,"åĲ«æľī":3521,"æī¹":3522,"å¸¸è§ģçļĦ":3523,"çĶŁæĪĲåķĨåĵģæĸĩæ¡Ī":3524,"å½Ĵç±»ä¸º":3525,"è¿Ļé¦ĸ":3526,"æĿ¥æºĲ":3527,"çĪĨ":3528,"å»ºè®®æĤ¨":3529,"éĢĥ":3530,"ä¸Ģé¡¹":3531,"ä»Ķ":3532,"è¿ĺåī©ä¸ĭ":3533,"å°½åı¯èĥ½":3534,"ä¸»è¯Ń":3535,"çļĦæłĩé¢ĺ":3536,"çļĦä½¿çĶ¨":3537,"æĹ©é¤Ĳ":3538,"é£ŀè¡Į":3539,"çĹĩçĬ¶":3540,"è¿Ľè¡ĮäºĨ":3541,"çł´åĿı":3542,"çļĦä¸»è¦ģåĨħå®¹":3543,"ç¬¬ä¸ī":3544,"åĨľä¸ļ":3545,"æ·ĭ":3546,"åŃ¦ä¼ļ":3547,"å½¢è±¡":3548,"çļĦçĿ¡çľł":3549,"åĲī":3550,"æľīæķĪåľ°":3551,"ä¼Ĭ":3552,"çļĦç¤¾ä¼ļ":3553,"éĢĤå½ĵçļĦ":3554,"ç¬¦åı·":3555,"ä»ĸäºº":3556,"é¦Ī":3557,"çļĦéľĢæ±Ĥ":3558,"çŀ":3559,"èĤº":3560,"æŃĮæĽ²":3561,"åıĬåħ¶":3562,"æľŁå¾ħ":3563,"åį«çĶŁ":3564,"ä¾¿åĪ©":3565,"æīĢéľĢ":3566,"èľĤ":3567,"æĪ´":3568,"èĭ¥":3569,"äºĶä¸ª":3570,"åī¯":3571,"åħħæ»¡äºĨ":3572,"é»Ħèī²":3573,"åģĩè®¾":3574,"åĴĮæĮĳæĪĺ":3575,"åĬ©æīĭ":3576,"æĦŁåħ´è¶£":3577,"å¼±":3578,"è¯·åĳĬè¯īæĪĳ":3579,"ç¾İçļĦ":3580,"é£ŁçĶ¨":3581,"GP":3582,"åĬŀåħ¬":3583,"æĢķ":3584,"æ±¤å§Ĩ":3585,"ç´¯":3586,"è¿Ľå±ķ":3587,"æĳĺ":3588,"æĪĺäºī":3589,"çļĦç©º":3590,"è§Ħå®ļ":3591,"åºĶè¯¥æĺ¯":3592,"åİŁçĲĨ":3593,"çľĭåĪ°äºĨ":3594,"çļĦæĶ¯":3595,"çĿ£":3596,"çļĦæ·":3597,"åĸľå¥½":3598,"æ¡¥":3599,"æ£Ģæµĭ":3600,"éĿŀå¸¸éĩįè¦ģ":3601,"çĻ¼":3602,"é¡¾å®¢":3603,"çļĦåŁİå¸Ĥ":3604,"æĢ§åĪ«":3605,"æ²Ļæ»©":3606,"æĤ²":3607,"åĲĪéĢĤçļĦ":3608,"åº¦è¿ĩ":3609,"å°±ä¸ļ":3610,"åĵ¦":3611,"åıĺæĪĲ":3612,"éĩĮæľī":3613,"éĩĮçļĦ":3614,"æģĴ":3615,"çļĦçŁ¥è¯Ĩ":3616,"èĸĦ":3617,"ä¹ĭå¤ĸ":3618,"çļĦæĻºèĥ½":3619,"éĿ¢ç§¯":3620,"è¯Ŀé¢ĺ":3621,"åĲ¹":3622,"ä¸ĵæ³¨":3623,"ç¼ºä¹ı":3624,"æĻĤ":3625,"å²¸":3626,"æ¸©å®¤æ°Ķä½ĵ":3627,"åĨħå¿ĥ":3628,"é¢Ħç®Ĺ":3629,"æĺ¯æĪĳ":3630,"éĽĦ":3631,"ä»°":3632,"ä¸ĢæĿ¯":3633,"åŁĥ":3634,"åı¯éĿł":3635,"åı¯ä»¥æıĲé«ĺ":3636,"æĹ¶åħī":3637,"éĻĦè¿ĳ":3638,"åĲ¬è¯´":3639,"è£ħé¥°":3640,"åĴĮæ²»çĸĹ":3641,"æ¡£":3642,"çļĦå®īåħ¨":3643,"å·®å¼Ĥ":3644,"é£ĺ":3645,"è§£éĩĬä¸Ģä¸ĭ":3646,"æ¸¯":3647,"è®¡ç®Ĺæľºç§ĳåŃ¦":3648,"çļĦæĮĩ":3649,"æĦīæĤ¦":3650,"èĬ±åĽŃ":3651,"èĩªä¿¡":3652,"çĸ«èĭĹ":3653,"è®¾æĸ½":3654,"å§ĵ":3655,"å®ŀæĸ½":3656,"æıĲéĨĴ":3657,"åī§æĥħ":3658,"æµªè´¹":3659,"ç»ĦåĲĪ":3660,"ãĢģâĢľ":3661,"åĮĸåĴĮ":3662,"æīĢåľ¨":3663,"èİ«":3664,"è´¢åĬ¡":3665,"ä¸»è§Ĵ":3666,"çĶµè¯Ŀ":3667,"ä¸Ģéĥ¨":3668,"ä¸ªæľĭåıĭ":3669,"åĿĩåĮĢ":3670,"åĴĮä¸į":3671,"in":3672,"çĹħäºº":3673,"æĺ¯ä¸ĢåĲį":3674,"ä¸ŃæĢ§":3675,"éģĩåĪ°äºĨ":3676,"å¤§æķ°æį®":3677,"åĪĨæŀĲåĴĮ":3678,"èİ·å¾ĹäºĨ":3679,"ä¸Ģä¸ªåı¥åŃĲ":3680,"åİ¨":3681,"åıįé¦Ī":3682,"çļĦåģ¥åº·":3683,"éļĶ":3684,"æıĲåĩºäºĨ":3685,"éħĴåºĹ":3686,"çĽĴ":3687,"ç»Ĩèĥŀ":3688,"åľ¨è¿Ļ":3689,"æĪĲåĳĺ":3690,"çĪ¬":3691,"åĨįæ¬¡":3692,"ä¸ĢäºĽåħ³äºİ":3693,"å¿§":3694,"åĴĮä¸Ģä¸ª":3695,"çĨĬçĮ«":3696,"æ°ı":3697,"æł¹æį®ä»¥ä¸ĭ":3698,"ä»¥ä¸ĭæĺ¯ä¸Ģéģĵ":3699,"åħ¨éĿ¢":3700,"çĪ½":3701,"èĦī":3702,"æĶ¶éĽĨ":3703,"Ġè¯·ä»İ":3704,"åĵ²åŃ¦":3705,"å¸¸å¸¸":3706,"ç¦ģ":3707,"èįīèİĵ":3708,"èµĸ":3709,"er":3710,"åı¯åĨįçĶŁèĥ½æºĲ":3711,"æµªæ¼«":3712,"èĳ¡èĲ":3713,"èĳ¡èĲĦ":3714,"ä¼Ł":3715,"ä¸įå¤ª":3716,"è§Ĵåº¦":3717,"åŃĹæ¯į":3718,"åħĶ":3719,"çĲĨè§£åĴĮ":3720,"çķªèĮĦ":3721,"å¤ªéĺ³èĥ½":3722,"å°ıåŃ¦æķ°åŃ¦é¢ĺ":3723,"æĪĲç»©":3724,"çļĦè¯Ńè¨Ģ":3725,"ä»¥ä¸ĭæĺ¯ä¸Ģéģĵå°ıåŃ¦æķ°åŃ¦é¢ĺ":3726,"ä¸Ĭè¿°":3727,"æĬ«èĲ¨":3728,"åº¦åģĩ":3729,"å¯¹äººç±»":3730,"éĺ´":3731,"æķ¦":3732,"çı¾":3733,"ç¦»å¼Ģ":3734,"ãĢĭãĢĤ":3735,"çķĻä¸ĭ":3736,"å®¤åĨħ":3737,"çĤ¸":3738,"åĴĮåıĳå±ķ":3739,"çļĦåįķè¯į":3740,"æ¶īåıĬåĪ°":3741,"æįķ":3742,"äººåľ¨":3743,"çŃīéĹ®é¢ĺ":3744,"æĻºæħ§":3745,"èĩªä¸»":3746,"éĥ¨éĹ¨":3747,"ç²Ĵ":3748,"çºłéĶĻ":3749,"çļĦæĦıä¹ī":3750,"ä¼łè¾¾":3751,"ç»´çĶŁç´ł":3752,"åħįçĸ«":3753,"èĤ¯å®ļ":3754,"çĶ·åŃ©":3755,"¹é¥":3756,"å¤§å°ı":3757,"åĪĻæĺ¯":3758,"ar":3759,"å½¢çĬ¶":3760,"æĽ¾ç»ı":3761,"çī©çĲĨåŃ¦":3762,"å°Ĩå®ĥä»¬":3763,"æĲħ":3764,"éģŃ":3765,"èı²":3766,"¹é¥ª":3767,"è¯¢éĹ®":3768,"åĶ¯":3769,"æĤł":3770,"ä¹ĭå¤Ħ":3771,"çļĦæł¸":3772,"æĸ°åŀĭ":3773,"æĮĩå®ļ":3774,"æ¬§æ´²":3775,"èĮĥåĽ´åĨħ":3776,"æī°":3777,"æ¸¸å®¢":3778,"çļĦç»ĵæŀľ":3779,"ç´§å¼ł":3780,"åı¦ä¸Ģä¸ª":3781,"ä¼¼ä¹İ":3782,"om":3783,"çļĩ":3784,"èĢĥè¯ķ":3785,"èıľåĵģ":3786,"åĪºæ¿Ģ":3787,"æŀģç«¯":3788,"ä¹±":3789,"ĠéĤ£":3790,"çº·":3791,"è®¾ç½®":3792,"æĸ¹éĿ¢çļĦ":3793,"è·¨":3794,"åĭķ":3795,"çļĦç²¾":3796,"å¿ł":3797,"çļĦæ²»":3798,"å°±åı¯ä»¥":3799,"æī¬":3800,"åĨħéĥ¨":3801,"è·¯ä¸Ĭ":3802,"ç»¼åĲĪ":3803,"æĺ¥å¤©":3804,"ç´«":3805,"25":3806,"11":3807,"å°ıæĺİæīĭ":3808,"åĩºå¤Ħ":3809,"ä¸ŃçļĦåºĶçĶ¨":3810,"çļĦç³ĸæŀľ":3811,"çļĦæ¶":3812,"å¹´è½»çļĦ":3813,"è¿Ķ":3814,"âĢĿãĢģâĢľ":3815,"åıĤè§Ĥ":3816,"ä¹Ķ":3817,"æľīä¸Ģ":3818,"åħĪçĶŁ":3819,"æľīä¸ĢäºĽ":3820,"å¢Ļ":3821,"è¿ħéĢŁ":3822,"éĿŀå¸¸æĦŁè°¢":3823,"è¿Ļä¸¤ä¸ª":3824,"å°Ĩåľ¨":3825,"è´´":3826,"èĥ¡":3827,"çļĦæıĲ":3828,"åĪĨåŃĲ":3829,"è¿Ļå®¶é¤Ĳåİħ":3830,"ä¸ĭéĻį":3831,"æł¹æį®ç»Ļå®ļçļĦ":3832,"èĬĤçº¦":3833,"çģŃ":3834,"æĻ¨":3835,"çļĦä¸Ģæ®µ":3836,"åħ´å¥ĭ":3837,"ä¸ºæĤ¨æıĲä¾Ľ":3838,"çļĦæ¼Ķ":3839,"æľīçĤ¹":3840,"çļĦæŀ":3841,"éĺ²æŃ¢":3842,"èĤ´":3843,"GPT":3844,"çĶµæ±ł":3845,"æĺ¯éĿŀå¸¸":3846,"å¯¹æĸ¹":3847,"è½¦è¾Ĩ":3848,"å·¨å¤§çļĦ":3849,"åħ·å¤ĩ":3850,"é¡ºåºı":3851,"åĬłä¸Ĭ":3852,"èĩªçĦ¶çģ¾å®³":3853,"è¦Ĩ":3854,"è¢ĸ":3855,"åĮ»éĻ¢":3856,"äº§çĶŁäºĨ":3857,"æĲħæĭĮ":3858,"è¯¥æĸĩæľ¬":3859,"åĵĪåĪ©":3860,"æ¬²":3861,"ç¾Ĭ":3862,"çŃīå¾ħ":3863,"è¯Ńæ°Ķ":3864,"å¤§çº¦":3865,"ä¸¾è¡Į":3866,"éĩįè§Ĩ":3867,"å±ħæ°ĳ":3868,"å¾Īæľī":3869,"å¼Ģå¤´":3870,"ä¼ĺè´¨":3871,"æĥ³æ³ķ":3872,"æµ·å¹³éĿ¢":3873,"ä¸»è¦ģè§ĤçĤ¹":3874,"çĶŁæĪĲä¸Ģç¯ĩ":3875,"è®¤çŁ¥":3876,"æľīçļĦ":3877,"èİī":3878,"æīĵå¼Ģ":3879,"æĸĩç«łä¸ŃçļĦ":3880,"èĬ³":3881,"åį³ä½¿":3882,"åħħè¶³":3883,"èĤĮèĤī":3884,"èĴ¸":3885,"åħµ":3886,"çļĦæĬĢèĥ½":3887,"ä¾µ":3888,"æĪĲè¯Ńåĩºå¤Ħ":3889,"æī®":3890,"æĿ¥è§£åĨ³":3891,"å°ıæĿİ":3892,"æĹ¶åĪ»":3893,"æ½ľåľ¨":3894,"çļĦä¸Ģéĥ¨åĪĨ":3895,"åįģå¹´":3896,"çĮİ":3897,"ĠéĤ£ä¹Ī":3898,"ç»Łè®¡":3899,"è²Į":3900,"ä¸Ģåľº":3901,"æĮĩå¯¼":3902,"é»ĳèī²":3903,"å¿½":3904,"é¤Ĳé¦Ĩ":3905,"åŃĲéĩĮ":3906,"åį°è±¡":3907,"Jo":3908,"è¢«å¹¿æ³Ľ":3909,"åĩĨç¡®åľ°":3910,"hon":3911,"äººåı£":3912,"å½¼æŃ¤":3913,"å½±åĥı":3914,"åħĭæľį":3915,"åĪĨå¸ĥ":3916,"çİ¯å¢ĥæ±¡æŁĵ":3917,"çľŁå®ŀ":3918,"éĽĨä¸Ń":3919,"ä½¿çĶ¨äºĨ":3920,"è´¦":3921,"å¿ĥèĦı":3922,"çłĶåıĳ":3923,"an":3924,"çļĦæİªæĸ½":3925,"èĩªèº«":3926,"å¤ľæĻļ":3927,"æİĴåºı":3928,"å¤ļæķ°":3929,"çļĦè®¾è®¡":3930,"çĶµå½±çļĦ":3931,"è¾ħåĬ©":3932,"ä¿¡ä»»":3933,"åĸ»":3934,"æİĪ":3935,"åĨ¬åŃ£":3936,"16":3937,"çļĦåŁºç¡Ģ":3938,"èĢĮæĺ¯":3939,"ãĢĭï¼Į":3940,"çļĦè¿ĲåĬ¨":3941,"äºĨå¾Īå¤ļ":3942,"ç¨İ":3943,"åħ¬éĩĮ":3944,"åŁ¹åħ»":3945,"æĴ°":3946,"æľĢå¤§çļĦ":3947,"è¶ħå¸Ĥ":3948,"çº¤":3949,"å¿ĥçĲĨåģ¥åº·":3950,"æľĢé«ĺ":3951,"ç®Ģæ´ģæĺİäºĨ":3952,"èĮ¨":3953,"çĲ´":3954,"æĬ½åıĸåĩº":3955,"æĽ´å¿«":3956,"åı¤èĢģ":3957,"å®£å¸ĥ":3958,"é¡µ":3959,"æĶ»åĩ»":3960,"äººä»¬çļĦ":3961,"æĪĳæĺ¯":3962,"ä½ľä¸ºä¸Ģä¸ª":3963,"ç¢İ":3964,"å¤§èĦĳ":3965,"çļĦå°ıè¯´":3966,"ä¸¤ç§į":3967,"æĸĩæĺİ":3968,"çĽ¾":3969,"çļĦæ²»çĸĹ":3970,"åĴª":3971,"çļĦæł¸å¿ĥ":3972,"å¯Ĩçłģ":3973,"ç£¨":3974,"äººä½ĵ":3975,"æĤ¬":3976,"çļĦä»»åĬ¡":3977,"éĢ²":3978,"åĬ¨åĬĽ":3979,"è®¡ç®Ĺæľºè§Ĩè§ī":3980,"è¿Ļç¯ĩæĸĩç«łä¸ŃæıĲåıĸåĩº":3981,"éĺ»":3982,"èį·":3983,"æľĢåĸľæ¬¢":3984,"çļĦæ¦Ĥå¿µ":3985,"åĽ¾ä¹¦":3986,"è¿ĳå¹´æĿ¥":3987,"æĢ»çļĦ":3988,"æŀĦå»º":3989,"è§Ĩä¸º":3990,"è¯·æıĲä¾Ľ":3991,"å¹¶ä¸º":3992,"èĢį":3993,"åŃĲåĴĮ":3994,"èĤ¡ç¥¨":3995,"åħ¬æŃ£":3996,"å¾Īå¤§":3997,"çİ©å®¶":3998,"çļĦæ¢":3999,"åı¯ä»¥å°Ĩ":4000,"çĶĺ":4001,"ä½ľå®¶":4002,"éĩįå¤§":4003,"æĪĸåħ¶ä»ĸ":4004,"éķ¿æĹ¶éĹ´":4005,"éĺµ":4006,"æĪĳæ²¡æľī":4007,"èĩ³åħ³":4008,"å¾ªçİ¯":4009,"åĩ½":4010,"æıĲç¤º":4011,"äº§åĵģçļĦ":4012,"åıªèĥ½":4013,"åħ¬åĽŃéĩĮ":4014,"æ²¿":4015,"åŃĺåĤ¨":4016,"é¢ĨåŁŁçļĦ":4017,"ħåĬĽ":4018,"åĲįä¸º":4019,"è¿Ľè¡Įæĳĺè¦ģ":4020,"æĺİçĻ½":4021,"æĽ´å®¹æĺĵ":4022,"æĿİæĺİ":4023,"æ¢ħ":4024,"çļĦç½ĳ":4025,"æĽ¼":4026,"ä¸Ģåħ±æľī":4027,"çļĦæ¬":4028,"åĴĮå®īåħ¨":4029,"ç»ĵæĿŁ":4030,"è£Ļ":4031,"hn":4032,"éł":4033,"ä¸ĭéĽ¨":4034,"çļĦç¾İé£Ł":4035,"çĳŀ":4036,"èıĮ":4037,"å°½éĩı":4038,"æ¯ķ":4039,"èº«ä»½":4040,"æİĺ":4041,"åĨ³äºİ":4042,"çŁ¿":4043,"åıĸåĨ³äºİ":4044,"è§Ĵèī²ä¿¡æģ¯":4045,"æĪĳä»¬çļĦçĶŁæ´»":4046,"çļĦåŁºæľ¬":4047,"çģ°":4048,"ä¿Ŀéļľ":4049,"æĭĵ":4050,"ä»·åĢ¼è§Ĥ":4051,"åıĳæĺİ":4052,"è±ª":4053,"çļĦçĶŁæ´»æĸ¹å¼ı":4054,"æ¼Ĥäº®":4055,"ç»ıçĲĨ":4056,"çļĦé¢ľèī²":4057,"åĽŀçŃĶè¿Ļä¸ªéĹ®é¢ĺ":4058,"åĴĮåºĶçĶ¨":4059,"ĠéĩįåĨĻ":4060,"000":4061,"åĲĦåľ°":4062,"åĲĽ":4063,"è½¬åĮĸ":4064,"åķĨåĬ¡":4065,"å°ıçĮ«":4066,"æĢ»çļĦæĿ¥è¯´":4067,"èµ¢å¾Ĺ":4068,"ä¸ºä½ł":4069,"è¯¸":4070,"èģĺ":4071,"çļĦæ½":4072,"çĬ¯ç½ª":4073,"è¯ģæį®":4074,"Ã·":4075,"çº¹":4076,"ä¼¯":4077,"æĳĨ":4078,"ç»´æĮģ":4079,"ç»Ļåĩºä¸Ģä¸ª":4080,"John":4081,"æĢİæł·":4082,"è¯ķåĽ¾":4083,"é²ģ":4084,"å¤§éĩıçļĦ":4085,"ç¼ºçĤ¹":4086,"æĥ³è±¡":4087,"åı¯ä»¥éĢīæĭ©":4088,"æŁ¥è¯¢":4089,"æĪĳè§īå¾Ĺ":4090,"æľīæķĪçļĦ":4091,"æĿİåĽĽ":4092,"ä¹ŁéľĢè¦ģ":4093,"çļĦçľĭ":4094,"ä¸Ģä»¶":4095,"åĭĩæ°Ķ":4096,"èĻİ":4097,"çļĦåĲ«ä¹ī":4098,"ä»¥æĿ¥":4099,"åı¯ä»¥æł¹æį®":4100,"ä»Ĭå¹´":4101,"æĻĴ":4102,"Ġ1":4103,"æŁĶè½¯":4104,"ä¼¦æķ¦":4105,"åŃĹç¬¦":4106,"æľªçŁ¥":4107,"å§Ķ":4108,"çĽĳæµĭ":4109,"è®¸å¤ļäºº":4110,"å¥½å¤Ħ":4111,"AIæĬĢæľ¯":4112,"èİ±":4113,"åĴĮæľįåĬ¡":4114,"åľĪ":4115,"å¿ĥåĴĮ":4116,"åĪļåĪļ":4117,"ä»ª":4118,"ä½Ĩä»ĸ":4119,"éĢĬ":4120,"çļĦæľįåĬ¡":4121,"æĺ¯åħ³äºİ":4122,"ä¸ªæĢ§åĮĸ":4123,"ä¸İåħ¶ä»ĸ":4124,"æĺ¯æľĢ":4125,"åį§":4126,"åīª":4127,"é¸£":4128,"çłĶç©¶è¡¨æĺİ":4129,"æĥħæĦŁåĪĨæŀĲ":4130,"å¹½":4131,"çļĦåĬ¨çī©":4132,"çļĦåıĺåĮĸ":4133,"çİ©èĢį":4134,"åıĤèĢĥ":4135,"çļĦçĸ":4136,"ä¸ĵå®¶":4137,"èĢħçļĦ":4138,"èĢĮè¨Ģ":4139,"å°ıåįİ":4140,"ç¡®å®ŀ":4141,"çĽĳçĿ£":4142,"çļ®èĤ¤":4143,"ä¼Ļ":4144,"ä¸įè¶³":4145,"çļĦæĥħåĨµä¸ĭ":4146,"ĠæĪĳæĥ³":4147,"ç¢į":4148,"éĻ·":4149,"æ°¸è¿ľ":4150,"å°±ä¼ļ":4151,"çļĦäº§åĵģ":4152,"èĬĿ":4153,"çºłæŃ£":4154,"éĤĢ":4155,"è´Łè´£":4156,"å§¿":4157,"æĢª":4158,"çļĦæĶ¯æĮģ":4159,"æģĭ":4160,"éĩĮéĿ¢":4161,"éĩĩåıĸæİªæĸ½":4162,"æľīçĽĬ":4163,"åĲĮåŃ¦":4164,"åĴĮè°":4165,"æŀĿ":4166,"èħĲ":4167,"è¯ģæĺİ":4168,"åį°åº¦":4169,"å¤§åŀĭ":4170,"åĩ¡":4171,"åĩºè¡Į":4172,"è¯Ńåı¥":4173,"è°ĥåĳ³":4174,"æ¥ļ":4175,"çļĦåħ·ä½ĵ":4176,"çļĦè¿ĩç¨ĭ":4177,"å¹´è½»äºº":4178,"çļĦæĢģ":4179,"çİ©åħ·":4180,"è®¿éĹ®":4181,"ç®Ģçº¦":4182,"è°Ĭ":4183,"åĽłä¸ºå®ĥä»¬":4184,"äºĭæķħ":4185,"æŃ»äº¡":4186,"åı¯èĥ½å¯¼èĩ´":4187,"å®ŀçĶ¨":4188,"åĸľçĪ±":4189,"æª¬":4190,"æĽ´ä¸º":4191,"å±±å³°":4192,"æīĭæ®µ":4193,"äº§ä¸ļ":4194,"è§Ĥçľĭ":4195,"çļĦé£İæł¼":4196,"çļĦæĥħç»ª":4197,"åıĸå¾ĹäºĨ":4198,"ce":4199,"éĺĶ":4200,"è¡«":4201,"æĭĶ":4202,"è¿ĻæĦıåĳ³çĿĢ":4203,"æµģç¨ĭ":4204,"å°ıæĺİåĴĮ":4205,"ĽçĽ¾":4206,"æĳĩ":4207,"łæª¬":4208,"å±ı":4209,"æŁ¥çľĭ":4210,"çļĦçĬ":4211,"å²©":4212,"è¶³å¤ŁçļĦ":4213,"è¿ĲçĶ¨":4214,"ä¸Ģæ®µæĸĩæľ¬":4215,"äººå£«":4216,"èĴľ":4217,"Ġè¿Ļä¸ª":4218,"æ£ī":4219,"åľ°ä¸Ĭ":4220,"le":4221,"çĶ·åŃĲ":4222,"ä¿Ĺ":4223,"åŀĥåľ¾åĪĨç±»":4224,"è¢«ç§°ä¸º":4225,"æĦŁåĪ°éĿŀå¸¸":4226,"èĴĤ":4227,"èıľèĤ´":4228,"æŃ£å¼ı":4229,"åŁ¹è®Ń":4230,"å¤ļæł·æĢ§":4231,"åĭĩæķ¢":4232,"ç©Ĩ":4233,"è¿Ļç¯ĩæĸĩç«łä¸ŃæıĲåıĸ":4234,"åĢĴåħ¥":4235,"å¹´ä»£":4236,"åİĺ":4237,"è¿Ļæ¬¡":4238,"éķ¿çļĦ":4239,"çĽ¸åıį":4240,"å½±çīĩ":4241,"åŁİå¸ĤçļĦ":4242,"ä¸ģ":4243,"åħ³éĶ®åŃĹ":4244,"çļĦçĭĹ":4245,"âĢĿãĢĤ<|":4246,"ä»¥ä¸ĭæĸĩç«ł":4247,"æī®æ¼Ķ":4248,"ä¸»äººåħ¬":4249,"çļĦçľĭæ³ķ":4250,"æĬĢæľ¯åĴĮ":4251,"æ²Ļæĭī":4252,"åĪ©çĽĬ":4253,"åľºæīĢ":4254,"çĥ¹é¥ª":4255,"è£ģ":4256,"ç¼ĸåĨĻä¸Ģä¸ª":4257,"æĳ©":4258,"æĶ¶åħ¥":4259,"çĽŁ":4260,"çļĦæĬķ":4261,"å±ķå¼Ģ":4262,"ç§Ł":4263,"çļĦæ¸¸æĪı":4264,"\"<|":4265,"äº¤äºĴ":4266,"åĪĺ":4267,"æŃ£å¸¸":4268,"çģµæ´»":4269,"å¼ķåıĳ":4270,"æĪĲåĬŁçļĦ":4271,"åĸľæ¬¢åĲĥ":4272,"ä¸Ńæľī":4273,"17":4274,"ä¾Ŀèµĸ":4275,"ä¹Łä¸į":4276,"æłĩçŃ¾":4277,"æģ¢":4278,"åĮ¹":4279,"å®ŀæĹ¶":4280,"æ¸ħæĸ°":4281,"ä¸Ģå¹´":4282,"çļĦæģ":4283,"å½ĵæĹ¶":4284,"éĩİçĶŁ":4285,"æĪĲæŀľ":4286,"èĢģæĿ¿":4287,"æĪĳä¸į":4288,"å¿ħè¦ģçļĦ":4289,"èģĮä½į":4290,"åĿĢ":4291,"æŁ¥æī¾":4292,"æĻºèĥ½æīĭæľº":4293,"å¤®":4294,"èŃ¦å¯Ł":4295,"åĴĮæ°´":4296,"æµ·å¹³éĿ¢ä¸Ĭåįĩ":4297,"æĺ¾èĳĹ":4298,"æİ¢éĻ©":4299,"è¿«":4300,"å°¿":4301,"æ³¢çī¹":4302,"éĺ¶æ®µ":4303,"æĭħå¿ĥ":4304,"çļĦçĽ®æłĩ":4305,"çļĦæ¢¦":4306,"äºĮæ°§åĮĸ":4307,"ä½łè®¤ä¸º":4308,"ä»Ļ":4309,"çĸĳéĹ®":4310,"è·ĥ":4311,"çļĦæ³ķ":4312,"åİŁæĸĩ":4313,"åºĨç¥Ŀ":4314,"ä¸ªæ©ĻåŃĲ":4315,"åı¯ä»¥çĶ¨":4316,"ç«¹":4317,"è®¤çľŁ":4318,"å¢¨":4319,"ä¸įè¶ħè¿ĩ":4320,"çĭ®":4321,"æĺĵæĩĤ":4322,"åľ¨ä¸ŃåĽ½":4323,"æĹłéĻĲ":4324,"æ·±è¿ľ":4325,"å·¥èīº":4326,"åĲĮæł·":4327,"æ³ķè§Ħ":4328,"å¿ĥæĢģ":4329,"ä¹°äºĨ":4330,"çļĦä¸ĸçķĮ":4331,"çļĦçľŁ":4332,"åħ¶ä¸ŃåĮħæĭ¬":4333,"è°ĵè¯Ń":4334,"é¸¡èĤī":4335,"ä½ĵéĩį":4336,"å¯¼æ¼Ķ":4337,"çļĦçī¹çĤ¹":4338,"è¦ģçĤ¹":4339,"èİİ":4340,"åŃ¦ç§ĳ":4341,"æĬĳ":4342,"å¤§å¤ļæķ°":4343,"æ¶µçĽĸ":4344,"Ġä½¿çĶ¨":4345,"å·¥ç¨ĭå¸Ī":4346,"åı¯ä»¥èĢĥèĻĳ":4347,"èĬĤæĹ¥":4348,"åĢ¼å¾Ĺä¸Ģ":4349,"éĹ®é¢ĺçļĦ":4350,"è¢«è®¤ä¸ºæĺ¯":4351,"æī¾åĪ°äºĨ":4352,"éĩĬæĶ¾":4353,"æľĢéĩįè¦ģ":4354,"é²¸":4355,"ä¼¦çĲĨ":4356,"çļĦçĮ":4357,"éĥ½åľ¨":4358,"åĲĪçī©":4359,"æĪĳæľĢè¿ĳ":4360,"åĲĥäºĨ":4361,"çŁ¥åĲį":4362,"åĴĮæĶ¯æĮģ":4363,"å¼Ģå¿ĥ":4364,"ä¸įæĸŃåľ°":4365,"ä¸Ģç³»åĪĹ":4366,"ç¡®è®¤":4367,"åģļå¥½":4368,"å¦Ĥä½ķåľ¨":4369,"æĺ¯åĲ¦æľī":4370,"æıŃ":4371,"çº¤ç»´":4372,"éľľ":4373,"åıĭè°Ĭ":4374,"çļĦæĽ":4375,"é¸Ń":4376,"æĭľ":4377,"æĥľ":4378,"çļĦæ¨":4379,"çĩķ":4380,"çļĦä¸ĢäºĽ":4381,"æĦŁæŁĵ":4382,"è´§å¸ģ":4383,"åĽ¾åĥıè¯ĨåĪ«":4384,"åıĹæ¬¢è¿İçļĦ":4385,"å¼Ł":4386,"å¾Ĵ":4387,"å°Ĭæķ¬":4388,"çĭĹçĭĹ":4389,"éģµå®Ī":4390,"çļĦæ¶Ī":4391,"é£Łè°±":4392,"å¦ĩ":4393,"æŁłæª¬":4394,"æķĪçİĩåĴĮ":4395,"çļĦä¸»æĹ¨":4396,"åĩ½æķ°":4397,"å¥½çľĭ":4398,"èĤł":4399,"äººç±»æ´»åĬ¨":4400,"è¶ĬæĿ¥è¶Ĭå¤ļ":4401,"æŃĮè¯į":4402,"çĽĳç®¡":4403,"æĽ¿ä»£":4404,"æİ¨æĸŃ":4405,"æĦıè¯ĨåĪ°":4406,"æ®ĸ":4407,"æĲº":4408,"60":4409,"ä¼ļå¯¼èĩ´":4410,"2021":4411,"èĤĸ":4412,"çļĦç¥ŀ":4413,"Ġç»Ļå®ļä¸Ģä¸ª":4414,"åľ¨è¿ĩåİ»":4415,"è½»è½»":4416,"æµ·è¾¹":4417,"æĦ¿æĦı":4418,"ç»ĻäºĨ":4419,"åľ¨å®¶éĩĮ":4420,"çļĦæŃ£":4421,"æĻ®éĢļ":4422,"éĨī":4423,"ä¹ĭéĹ´çļĦåħ³ç³»":4424,"å·²ç»ıæĪĲä¸º":4425,"æĶ¯éĵħç¬Ķ":4426,"åĽŀå¿Ĩ":4427,"è¯¥åħ¬åı¸":4428,"éĥ½åı¯ä»¥":4429,"æĪĳä¹Ł":4430,"åĪł":4431,"çļĦæĳĦ":4432,"å¦Ĥæŀľä½łåĸľæ¬¢":4433,"çļĦæ·±":4434,"éĻ¤ä»¥":4435,"èıľåįķ":4436,"æĹłäºº":4437,"æĿ¥å®ŀçİ°":4438,"è¿Ł":4439,"éĻª":4440,"çļĦæ½ľ":4441,"40":4442,"è·¯çº¿":4443,"æ´ª":4444,"éģİ":4445,"æııç»ĺ":4446,"æĽ´æľī":4447,"èģļä¼ļ":4448,"äºĴçĽ¸":4449,"ä¸ĢåĢĭ":4450,"é¸Łç±»":4451,"çļĦçĪ±æĥħ":4452,"æİĴåĪĹ":4453,"èĴĻ":4454,"åľ°çĲĥçļĦ":4455,"æĮĤ":4456,"ç¤¼çī©":4457,"å°ıé¸Ł":4458,"æĤī":4459,"éģĵè·¯":4460,"åĴĮè°Ĳ":4461,"äºĮæ°§åĮĸç¢³":4462,"çļĦæİĴ":4463,"æ¡ĥ":4464,"æĽ´æĸ°":4465,"ä¿ĿéĻ©":4466,"æľºåĪ¶":4467,"è´¸":4468,"åĢį":4469,"åĪĹä¸¾":4470,"åĭĴ":4471,"ä»¥ä¸ĭéĹ®é¢ĺ":4472,"ä»ĸæĥ³":4473,"ä»ĭç»įä¸Ģä¸ĭ":4474,"å¯¹åħ¶":4475,"èĭ±æĸĩ":4476,"çĻ½èī²":4477,"äºĭä¸ļ":4478,"åį«æĺŁ":4479,"å®ĹæķĻ":4480,"èĬĴ":4481,"è¯»ä¹¦":4482,"åķĨåºĹ":4483,"ä¿ĿæĮģåģ¥åº·":4484,"çļĦä¸į":4485,"ä¸ľäº¬":4486,"ä»¿ä½Ľ":4487,"èĥ½åĬĽåĴĮ":4488,"æģ¢å¤į":4489,"åĪĢ":4490,"çİĩåĴĮ":4491,"çº½çº¦å¸Ĥ":4492,"ä¸Ģå¼ł":4493,"æ·ĩ":4494,"åľ¨è¿ĻéĩĮ":4495,"\"ï¼Į":4496,"è®©äººä»¬":4497,"èĻļæĭŁçİ°å®ŀ":4498,"çļĦæŁ":4499,"éĿ¢æĸĻ":4500,"çļĦæŃ¥":4501,"åĽ¾ä¹¦é¦Ĩ":4502,"å°½åĬĽ":4503,"åĲĮäºĭ":4504,"çŃĶæ¡Īæĺ¯":4505,"èĥ¸":4506,"ä¼¤å®³":4507,"é¢ĨåŁŁä¸Ń":4508,"è¿Ĳè¡Į":4509,"ç§įæ¤į":4510,"çļĦå¤ĸ":4511,"æĻ®éģį":4512,"å°ıæľĭåıĭ":4513,"å¦Īå¦Ī":4514,"æłĩå¿Ĺ":4515,"çļĦé«ĺ":4516,"ä¸ĢçĽ´åľ¨":4517,"æĬĵ":4518,"éªĮè¯ģ":4519,"è¯´è¯Ŀ":4520,"çĭĤ":4521,"åĵªç§į":4522,"èĢĢ":4523,"åıĭå¥½":4524,"å£¤":4525,"æľºåĻ¨åŃ¦ä¹łç®Ĺæ³ķ":4526,"å¾Īå¥½çļĦ":4527,"çļĦåħ³ç³»":4528,"çĬ¹":4529,"æĺ¯å¤ļå°ĳ":4530,"åħīçº¿":4531,"å½ĵä½ł":4532,"åĨ°æ·ĩ":4533,"åĪ«äºº":4534,"éĺĲ":4535,"åĬĽåŃ¦":4536,"å°ıæĺİå®¶":4537,"äººå·¥æĻºèĥ½çļĦåıĳå±ķ":4538,"ä½łä¼ļ":4539,"çĶ·æĢ§":4540,"æĻºèĥ½åĮĸ":4541,"åľ°éľĩ":4542,"ä»ĸä»¬åľ¨":4543,"åĪĽä¸ļ":4544,"å°±åĥı":4545,"ä¸¦":4546,"æĪĳéĿŀå¸¸":4547,"åĨ°æ·ĩæ·ĭ":4548,"ä¼ĺæĥł":4549,"æ¯ĶèµĽä¸Ń":4550,"ç¾¤ä½ĵ":4551,"Tom":4552,"æĺ¯ä¸į":4553,"åıªè¦ģ":4554,"Ġç»Ļåĩºä¸Ģä¸ª":4555,"èĥľåĪ©":4556,"åħļ":4557,"æħ¢æħ¢":4558,"ä¾ĽåºĶ":4559,"ä¸²":4560,"åħ¬ä¼Ĺ":4561,"çĥŃæĥħ":4562,"ä½¿çĶ¨çļĦ":4563,"çĶŁæĪĲæĳĺè¦ģ":4564,"ä½łè§īå¾Ĺ":4565,"æ¦Ĥè¿°":4566,"æĽ´é«ĺ":4567,"å¼ķåĬĽ":4568,"åĬłéĢŁ":4569,"ä¸§":4570,"æ¢¦æĥ³":4571,"åįľ":4572,"æĺ¯åĽłä¸º":4573,"åĴĮæľĭåıĭ":4574,"åĪĩæĪĲ":4575,"çļĦæľºä¼ļ":4576,"ï¼ļ\"":4577,"å®¿":4578,"æĮĩçļĦæĺ¯":4579,"åĪ·":4580,"å°ĺ":4581,"æĺ¯å¦Ĥä½ķ":4582,"å®Įç¾İ":4583,"æ³Ĭ":4584,"å¼Ĺ":4585,"è°ĥèĬĤ":4586,"é£ŀæľº":4587,"è®²è¿°äºĨä¸Ģä¸ª":4588,"çļĦæ¯ı":4589,"åĭ¤":4590,"å«Į":4591,"è¿Ļåıª":4592,"åħ¶å®ŀ":4593,"çļĦçĻ":4594,"æĿĥåĪ©":4595,"ä¸Ĭæĸĩ":4596,"ç¨®":4597,"çĽĹ":4598,"çŁĽçĽ¾":4599,"è¯ķè¯ķ":4600,"ä¾§":4601,"èº«ä½ĵåĴĮ":4602,"ä¿¡ä»°":4603,"çĽ®çļĦæĺ¯":4604,"çļĦæ£":4605,"è¿Ļæĺ¯ä¸Ģç¯ĩ":4606,"æī©å¤§":4607,"çļĦç¼ĸ":4608,"24":4609,"è¿Ļæł·çļĦ":4610,"å¯¸":4611,"ç®Ģä»ĭ":4612,"ãĢĤ'":4613,"æĿİåįİ":4614,"åĴĮå·¥ä½ľ":4615,"åĬĽäºİ":4616,"æı´":4617,"å¹¶å°Ĩ":4618,"å¹¶å°Ĩåħ¶":4619,"å§ĵåĲį":4620,"æ¶Ĥ":4621,"å°ĳå¹´":4622,"è¿Ļå°Ĩ":4623,"ä¸Ģçīĩ":4624,"å¦Ĥæŀľä½łæĥ³":4625,"ä¸įæĸŃåıĳå±ķ":4626,"å¹¿æ³ĽåºĶçĶ¨":4627,"éĩĩåıĸè¡ĮåĬ¨":4628,"å®¶åħ·":4629,"çļĦçľ¼":4630,"Ġæł¹æį®ä»¥ä¸ĭ":4631,"è¯ĨåĪ«åĩº":4632,"æĦıå¤§åĪ©éĿ¢":4633,"ä¸įéľĢè¦ģ":4634,"é¬":4635,"æĸ°éĹ»æĸĩç«ł":4636,"çļĦè´¨éĩı":4637,"æ®ĭ":4638,"14":4639,"è½¨":4640,"æĵİ":4641,"çļĦè¯ĹæŃĮ":4642,"å¤©çĦ¶":4643,"å¥Ķ":4644,"åĲįè¯įçŁŃè¯Ń":4645,"æīĭæľ¯":4646,"æľĢæĸ°çļĦ":4647,"äº¤éĢļå·¥åħ·":4648,"çĤ¹ç¬¦åı·":4649,"æĹģ":4650,"å¯Įæľī":4651,"çļĦä½įç½®":4652,"è¿Ļæ®µæĸĩåŃĹ":4653,"åĴĮå¹³":4654,"å¹¶ä¸įæĺ¯":4655,"æŀĦæĪĲ":4656,"åıĸä»£":4657,"Ġ5":4658,"çīĽèĤī":4659,"æĥħæĦŁåĪĨç±»":4660,"ãĢĮ":4661,"ç±»åŀĭçļĦ":4662,"ä¿®æŃ£":4663,"å®Ŀå®Ŀ":4664,"åİŁåĪĻ":4665,"æī£":4666,"æĶ¾å¼ĥ":4667,"æ·±åĳ¼åĲ¸":4668,"æĺ¯æĪĳä»¬":4669,"è´«":4670,"é»ĳæļĹ":4671,"è§ĦèĮĥ":4672,"æ¯«":4673,"è¿ĺèĥ½":4674,"NA":4675,"ãĢį":4676,"å°½å¿«":4677,"å¹¶ç»Ļåĩº":4678,"æĶ¹ä¸º":4679,"li":4680,"è½¬æį¢ä¸º":4681,"èĺ":4682,"å¯¿åĳ½":4683,"åı£è¯Ń":4684,"åħĶåŃĲ":4685,"å¯¹è±¡":4686,"æĢİä¹Īæł·":4687,"æĪĳå°Ĩ":4688,"åıĳåĩº":4689,"åºĦ":4690,"æĺ¯ä¸ª":4691,"åĩĨç¡®æĢ§":4692,"çļĦæ°´æŀľ":4693,"æĽ´å¥½åľ°çĲĨè§£":4694,"å¯Ĥ":4695,"ä¹Į":4696,"ä¹Łå°±æĺ¯":4697,"éħª":4698,"æ¶ĪèĢĹ":4699,"æĤ¨å¥½":4700,"æİ¥çĿĢ":4701,"ä¸ĢåĪĩ":4702,"çĥ¦":4703,"æĹ¥å¸¸çĶŁæ´»":4704,"åľºåĲĪ":4705,"æĿ¥æıĲé«ĺ":4706,"åģıå¥½":4707,"ç¥ŀç§ĺçļĦ":4708,"Ġè¯·ç»ĻæĪĳ":4709,"å½ĵä»Ĭ":4710,"ä¸¥æł¼":4711,"å¼ķæĵİ":4712,"ç¬¬ä¸Ģä¸ª":4713,"æ¸ħåįķ":4714,"ç¬¬äºĮä¸ª":4715,"åĽ½åĨħ":4716,"ä¸īç§į":4717,"åĮºåĪ«":4718,"ï¼ļ'":4719,"å¼ºå¤§":4720,"ç½ļ":4721,"çĮª":4722,"æĿ¥çľĭ":4723,"èĬĤå¥ı":4724,"çīĪæľ¬":4725,"å½ĵåľ°çļĦ":4726,"æİ¨èįĲä¸ĢäºĽ":4727,"ä¼¸":4728,"åİĤ":4729,"çŃīæĸ¹å¼ı":4730,"åİĭåĬĽåĴĮ":4731,"è´¹çĶ¨":4732,"çĩĥæĸĻ":4733,"æıĴ":4734,"åĴĮåĪĨæŀĲ":4735,"æµ¸":4736,"æĪ·å¤ĸæ´»åĬ¨":4737,"ä¼łéĢĴ":4738,"å°¼åħĭ":4739,"æıĲä¾ĽçļĦæĸĩæľ¬":4740,"æĦŁåĴĮ":4741,"åĲ¬åĪ°":4742,"ĠçĶ¨":4743,"è¿Ļä½į":4744,"èį¡":4745,"åĲİçļĦ":4746,"çļĦæĢģåº¦":4747,"æĬµ":4748,"ä½łå¯¹":4749,"çĶµåĬ¨":4750,"è¯·ç»ĻæĪĳ":4751,"èĬ±è´¹":4752,"æĢģåº¦":4753,"åıĺéĿ©":4754,"è¦ģæ³¨æĦı":4755,"å°¤åħ¶æĺ¯":4756,"åŃĶ":4757,"å£ģ":4758,"å¯¹æīĭ":4759,"å¹¿æ³ĽçļĦåºĶçĶ¨":4760,"èĬ¬":4761,"å¤±åİ»":4762,"æ¨¡ä»¿":4763,"è¯ĦåĪĨ":4764,"åĽĽä¸ª":4765,"åı¯èĥ½æĢ§":4766,"Ġå¸®æĪĳ":4767,"æĸ°äº§åĵģ":4768,"çļĦåŃ¦ä¹ł":4769,"åģ·":4770,"åı«åģļ":4771,"é«Ķ":4772,"åı¯ä»¥æĺ¯":4773,"è¾ŀ":4774,"Ġäººå·¥æĻºèĥ½":4775,"æ»¤":4776,"å¥½äºĨ":4777,"åĮĸåĲĪçī©":4778,"äºİæĺ¯":4779,"ä¸ĢçĤ¹":4780,"è´¯":4781,"çľ¼çĿĽ":4782,"éĻ¤æŃ¤":4783,"Ġé¢ĺçĽ®":4784,"13":4785,"ç¢Ĺ":4786,"éĶĢåĶ®é¢Ŀ":4787,"åİ¿":4788,"æľīæĹ¶":4789,"åĲĪåĲĮ":4790,"åłµ":4791,"é³":4792,"æľºåĻ¨ç¿»è¯ĳ":4793,"èĪĩ":4794,"æ°´åĴĮ":4795,"éļıæľº":4796,"é¦Ļæ¸¯":4797,"é©±":4798,"åıĳå±ķçļĦ":4799,"ä½łæľīä»Ģä¹Ī":4800,"åĶ¯ä¸Ģ":4801,"åľŁå£¤":4802,"æ°´ä¸Ń":4803,"èĩ´åĬĽäºİ":4804,"é¦¨":4805,"ä¿¡åı·":4806,"å¥¥è¿Ĳ":4807,"æ¯ıæ¬¡":4808,"è¯Ńæ³ķåĴĮ":4809,"åĢ¾åĲĳ":4810,"éĤĢè¯·":4811,"æĺ¯ä¸Ģé¡¹":4812,"æĻ¯è§Ĥ":4813,"å®ģéĿĻ":4814,"éľĢè¦ģæ³¨æĦıçļĦæĺ¯":4815,"å¿ĥçģµ":4816,"çļĦç¾İå¥½":4817,"æĺĵäºİçĲĨè§£":4818,"æĸĩä¸Ń":4819,"èĭ±éĽĦ":4820,"æķ´ä½ĵ":4821,"éĻ¤æŃ¤ä¹ĭå¤ĸ":4822,"æĵħ":4823,"è±¡å¾ģ":4824,"èģĶåĲĪ":4825,"åĴĮæķ°æį®":4826,"yt":4827,"æĮĳ":4828,"å®ĮåĸĦ":4829,"å¾Īéļ¾":4830,"æĢİä¹ĪåĬŀ":4831,"éĿŀå¸¸æľī":4832,"æ¨¡æĭŁäººç±»":4833,"å¦¹":4834,"æĪĲç«ĭ":4835,"çİ°åľ¨è¯·ä½ł":4836,"èµĦæĸĻ":4837,"å¸¦æĿ¥çļĦ":4838,"èµĭ":4839,"åı¦ä¸Ģ":4840,"è®¯":4841,"ãĢĤãĢĬ":4842,"è¿Ļåº§":4843,"å¤±è´¥":4844,"æĮĸ":4845,"çļĦæµģ":4846,"è¿ĻäºĽéĹ®é¢ĺ":4847,"èħ»":4848,"éĸĭ":4849,"å¾·åĽ½":4850,"åĴĮé«ĺ":4851,"ç»Ĵ":4852,"æ¤ħ":4853,"å¸Ń":4854,"åĴĮæĬĢæľ¯":4855,"é¢Ħè®¡":4856,"é½Ĳ":4857,"ç¤¾ä¼ļçļĦ":4858,"åĮĹæŀģ":4859,"èĬĤçĽ®":4860,"æĩī":4861,"å¸½":4862,"çģ«æĺŁ":4863,"æĹħæ¸¸æĻ¯çĤ¹":4864,"ä¸¾åĬŀ":4865,"æľīäºº":4866,"å®īè£ħ":4867,"çļĦæ¨¡":4868,"å¸®æĪĳæĥ³":4869,"çļĦç¨ĭ":4870,"çĻĮçĹĩ":4871,"åı¯èĥ½ä¼ļå¯¼èĩ´":4872,"æ¼Ķè®²":4873,"åıįæĺł":4874,"ä¸¹":4875,"æīĢè¿°":4876,"å¾Ģå¾Ģ":4877,"å¤©ä½ĵ":4878,"æ´ĭèĳ±":4879,"è¹Ī":4880,"ä¼ļå¯¹":4881,"çļĦæĹ¥":4882,"éĸĵ":4883,"ä½łåľ¨":4884,"èµĦéĩĳ":4885,"ä¾¿æį·":4886,"çļĦæĥħèĬĤ":4887,"çļĦæĦŁåıĹ":4888,"çļĦæĬĢå·§":4889,"å¹³æĸ¹":4890,"éŁµ":4891,"äººå·¥æĻºèĥ½çļĦåºĶçĶ¨":4892,"æĴŀ":4893,"è¡¬":4894,"çī¹åĪ«æĺ¯":4895,"ython":4896,"æ¯ıå¹´":4897,"äººå¿ĥ":4898,"ä¸Ńç«ĭ":4899,"ç²¾åĩĨ":4900,"è¦ĨçĽĸ":4901,"ç£ģ":4902,"Ŀåįľ":4903,"ä¸Ĭæľī":4904,"è¯·ç»ŃåĨĻ":4905,"å¹¶è¿Ľè¡Į":4906,"çļĦè¿ĩç¨ĭä¸Ń":4907,"æĭ¼åĨĻéĶĻè¯¯":4908,"æľĪçĲĥ":4909,"æ¼ł":4910,"åı¯ä»¥å°Ŀè¯ķ":4911,"ä¼Ļä¼´":4912,"åº¦çļĦ":4913,"ä¼łç»ŁçļĦ":4914,"åħĪè¿Ľ":4915,"è¿ĺæľīåħ¶ä»ĸ":4916,"éĢļå¸¸æĺ¯":4917,"æľīæľº":4918,"äºĨä»Ģä¹Ī":4919,"çĪ¸":4920,"æ¯ıäºº":4921,"æĴĴ":4922,"çļĦæĶ¹":4923,"åŃ¦æľ¯":4924,"å®ļåĪ¶":4925,"æłĩè®°":4926,"ä¼ļåľ¨":4927,"åĩĿ":4928,"åħ±äº«":4929,"è¿Ļéģĵ":4930,"åĩºçĶŁ":4931,"ç»ĻäºĪ":4932,"åı¯ä»¥å¸®åĬ©æĪĳä»¬":4933,"è¿Ļåľº":4934,"åªļ":4935,"éĿŀæ³ķ":4936,"åĿĩè¡¡":4937,"Python":4938,"èĿ¶":4939,"ç§ĳæĬĢçļĦ":4940,"éŃħåĬĽ":4941,"è¯¥æĸĩç«ł":4942,"åħ¬å¹³":4943,"èķ´":4944,"çªģåĩº":4945,"çļĦæĳĦåħ¥":4946,"åģ¶":4947,"ä¸ŃåĽ½çļĦ":4948,"éĻ¤æ³ķ":4949,"ç¶ĵ":4950,"éĹľ":4951,"äººå·¥æĻºèĥ½åľ¨åĮ»çĸĹé¢ĨåŁŁ":4952,"éĿŀæ´²":4953,"è¡¨çİ°åĩº":4954,"ä¸Ńå¤®":4955,"æ»´":4956,"Ġå¦Ĥæŀľ":4957,"çļĦæķĪæŀľ":4958,"ç¾½":4959,"ç½ĳä¸Ĭ":4960,"åĴĮæĥħæĦŁ":4961,"åĩ¯":4962,"å°ıçİĭ":4963,"æļĤ":4964,"å¤ĸå¥Ĺ":4965,"æĭĤ":4966,"æīĭè¡¨":4967,"æĪĲä¸Ģä¸ª":4968,"å¼ķäºº":4969,"å°ıçļĦ":4970,"ç»Īäºİ":4971,"è¯·ç»ŃåĨĻä»ĸä»¬çļĦå¯¹è¯ĿåĨħå®¹":4972,"åĪłéĻ¤":4973,"ç¼ĺ":4974,"åĩłå¹´":4975,"æĺ¯äººç±»":4976,"çļĦç¤¾äº¤":4977,"çļĦä»·æł¼":4978,"ä¿ĿçķĻ":4979,"çĲĥåĳĺ":4980,"èįĴ":4981,"éļľç¢į":4982,"æĸĩæľ¬è¿Ľè¡Į":4983,"åģ¥åº·åĴĮ":4984,"çļĦæ¸ħ":4985,"çļĦæ¢¦æĥ³":4986,"è¿ĶåĽŀ":4987,"å¸Ĥä¸Ńå¿ĥ":4988,"çģ«è½¦":4989,"èĪŀè¹Ī":4990,"æĪĳå·²ç»ı":4991,"ç»ĻæĤ¨":4992,"è¡ĵ":4993,"ä¸įåĪ°":4994,"å¤ıæĹ¥":4995,"æ¶Īæģ¯":4996,"çİ¯ä¿ĿæĦıè¯Ĩ":4997,"éĢĹ":4998,"å±±èĦī":4999,"ç©·":5000,"éĥ½èĥ½":5001,"æĸĩç«łåĨħå®¹":5002,"AIè¯Ńè¨Ģæ¨¡åŀĭ":5003,"è¿Ļä¹Ī":5004,"æĽ´å¥½åľ°äºĨè§£":5005,"ä¹Łåľ¨":5006,"åı¯ä»¥çĶ¨äºİ":5007,"çĮ«åĴª":5008,"éĩįéĩı":5009,"å¿łè¯ļ":5010,"è½¬åĮĸä¸º":5011,"GPTæ¨¡åŀĭ":5012,"ç½©":5013,"å¤ªç©ºæİ¢ç´¢":5014,"æĪĳæİ¨èįĲ":5015,"éģĹäº§":5016,"åįķä½į":5017,"ä¸¤ä¸ªäºº":5018,"æ³¨æĦıåĬĽ":5019,"åİ»å¹´":5020,"ä¸įå¥½":5021,"åĪĨæĶ¯":5022,"èıĩ":5023,"æľºéģĩ":5024,"çĥŃéĹ¨":5025,"æ¼ı":5026,"æĿĲè´¨":5027,"åĲ¸æĶ¶":5028,"è°¨":5029,"éĢıæĺİ":5030,"æµĭéĩı":5031,"è´¸æĺĵ":5032,"æĬķåħ¥":5033,"é¥®é£Łä¹łæĥ¯":5034,"å®¶æĹı":5035,"æĢĸ":5036,"çļĦçĬ¶":5037,"æľįè£ħ":5038,"éĶģ":5039,"å¾ĭå¸Ī":5040,"èŀįåĲĪ":5041,"æĺ¯éĢļè¿ĩ":5042,"è¿Ļæĺ¯åĽłä¸º":5043,"ä¸įåĨį":5044,"åŃ©åŃĲä»¬":5045,"è¯ĬæĸŃåĴĮæ²»çĸĹ":5046,"æĸĩä»¶":5047,"æıĲä¾ĽæĽ´":5048,"å¿ĥçĲĨåŃ¦":5049,"å½¢çļĦ":5050,"åİŁå§ĭæĸĩæľ¬":5051,"æīĵéĢł":5052,"éĩĳå±ŀ":5053,"åı¯ä»¥ä¸º":5054,"äºļæ´²":5055,"æľīéĻĲ":5056,"æĶ¾æĿ¾èº«å¿ĥ":5057,"ä½Ĩå®ĥ":5058,"åĴĮå»ºè®®":5059,"æµħ":5060,"åıĮæĸ¹":5061,"é¢Ī":5062,"çĽ¸æ¯Ķ":5063,"æľīäºĽäºº":5064,"çľŁæĺ¯":5065,"ä»¥æıĲé«ĺ":5066,"è£Ĥ":5067,"èĥ½å¤Łå¸®åĬ©":5068,"æĦıè§ģ":5069,"æ½®æµģ":5070,"åĪ¶åĵģ":5071,"åĲĪå¹¶":5072,"è¼":5073,"ç¨į":5074,"å®īéĿĻ":5075,"çº¢èī²çļĦ":5076,"ç¨¿":5077,"æ¯Ķåĸ»":5078,"æĪĳåĢĳ":5079,"èĥ½ä¸įèĥ½":5080,"çļĦè¯Ŀé¢ĺ":5081,"ä¸įä»ħä»ħ":5082,"ä»ģ":5083,"çļĦç¾İä¸½":5084,"å¹¶è§£éĩĬ":5085,"æħİ":5086,"ä¸Ģéģĵ":5087,"å¤©æ°Ķé¢ĦæĬ¥":5088,"90":5089,"çĶ»éĿ¢":5090,"æľĢå¤ļ":5091,"èĦĨ":5092,"åıįä¹īè¯į":5093,"éĵº":5094,"çĪ±çļĦ":5095,"å¨ľ":5096,"åĹ¯":5097,"éĿ¢è¯ķ":5098,"çļĦå¥½å¤Ħ":5099,"ç©¿è¶Ĭ":5100,"å¤§åľ°":5101,"æĸ¯åĿ¦":5102,"ĠçĶŁæĪĲä¸Ģä¸ª":5103,"åı¯ä»¥ä»İ":5104,"æľ¬èº«":5105,"åį¢":5106,"æł¸å¿ĥ":5107,"åĽŀåĪ°":5108,"æİ¥è§¦":5109,"èī³":5110,"åĪ©æ¶¦":5111,"çħİ":5112,"åľĭ":5113,"æķ°ä¸º":5114,"éī":5115,"å®ŀéĻħä¸Ĭ":5116,"ä¸īè§Ĵ":5117,"çĥŃéĩı":5118,"æĿ¥çļĦ":5119,"ä¹Ĳè¶£":5120,"å°Ĭæķ¬çļĦ":5121,"åĩĨç¡®çļĦ":5122,"é¹ħ":5123,"éĺĲè¿°":5124,"æĺ¯ç¾İåĽ½":5125,"åħ¨åĽ½":5126,"å¾ĪæĬ±æŃī":5127,"åĨłåĨĽ":5128,"èīºæľ¯å®¶":5129,"åľ°ä½į":5130,"or":5131,"çĶŁåĬ¨":5132,"åįıä½ľ":5133,"åİĨåı²ä¸Ĭ":5134,"èµ·æºĲ":5135,"ãĢĤâĢľ":5136,"å°¼äºļ":5137,"ä¸Ģå®ļçļĦ":5138,"åĨ²çªģ":5139,"çİ»":5140,"æ¶¯":5141,"åįĹæŀģ":5142,"æķ°æį®çļĦ":5143,"çĶ³è¯·":5144,"ç²¾å½©":5145,"èĩªçĦ¶çİ¯å¢ĥ":5146,"éĿ©åĳ½":5147,"éħįæĸĻ":5148,"éªĳèĩªè¡Įè½¦":5149,"çī¹æĢ§":5150,"çŃīæĬĢæľ¯":5151,"éļ¾å¿ĺ":5152,"æĸĩæ¡ĪçĶŁæĪĲ":5153,"æ¬º":5154,"è¯Ńä¹ī":5155,"å¸¦æľī":5156,"å¿ĥä¸Ń":5157,"æĸĩæľ¬éĶĻè¯¯":5158,"æĿ¥å¸®åĬ©":5159,"ä»¥ä¸ĭåĩłä¸ª":5160,"æ³ī":5161,"è¡¨æł¼":5162,"æĪĳè¦ģ":5163,"çļĦæķĻèĤ²":5164,"ä½ĵç³»":5165,"æīĵç®Ĺ":5166,"å¼Ģå±ķ":5167,"å°ıåŀĭ":5168,"çļĦé¦ĸ":5169,"åħ¬å¼ı":5170,"ç®ĢçŁŃçļĦ":5171,"ä½©":5172,"æĹħç¨ĭ":5173,"æ°ĳæĹı":5174,"è¿Ļè¡¨æĺİ":5175,"Ġè¯·æıĲåıĸ":5176,"æĪĳå¯¹":5177,"çļĦæĬķèµĦ":5178,"æĹ¥å¸¸çĶŁæ´»ä¸Ń":5179,"æĪĳå¸ĮæľĽ":5180,"é¢Ħè®¢":5181,"æľīä»»ä½ķ":5182,"åįĩé«ĺ":5183,"ä»Ĭå¤©å¤©æ°Ķ":5184,"çĸ²åĬ³":5185,"åłĨ":5186,"è°ľ":5187,"å¾Īä¸įéĶĻ":5188,"åīįæıĲ":5189,"èĩªåĬ¨é©¾é©¶æ±½è½¦":5190,"åľŁåľ°":5191,"åĴĮäººç±»":5192,"ç´§æĢ¥":5193,"çĳ°":5194,"æŃ¥è¡Į":5195,"åį³å°Ĩ":5196,"å¼Ĥå¸¸":5197,"éī´":5198,"æĴĳ":5199,"åħ¨çĲĥèĮĥåĽ´åĨħ":5200,"Ġä»ĸ":5201,"çĴĥ":5202,"äººéĻħ":5203,"æľªæĿ¥åıĳå±ķ":5204,"çº¦ä¸º":5205,"Ġæł¹æį®ç»Ļå®ļçļĦæĸĩæľ¬":5206,"åĴĮæĹ¶éĹ´":5207,"å¤¹":5208,"2022":5209,"åİŁåı¥":5210,"ä¸Ģåı¥":5211,"å¾Īæ£Ĵ":5212,"èĬĤèĥ½":5213,"ä¼ĺç§ĢçļĦ":5214,"å¯ĮåĲ«":5215,"ä¼ļæľī":5216,"çĮľ":5217,"åĽŀå¤į":5218,"éĻ¶":5219,"æľĢéĩįè¦ģçļĦ":5220,"è¡Ģåİĭ":5221,"åĮĸçŁ³":5222,"åľ¨æĪĳ":5223,"èº«è¾¹":5224,"äº«çĶ¨":5225,"ä¸įå¾Ĺ":5226,"çĽ¸åºĶçļĦ":5227,"ä¾£":5228,"èµİ":5229,"æĪĲåĬŁåľ°":5230,"çģµæĦŁ":5231,"æııè¿°ä¸Ģä¸ĭ":5232,"åı¯èĥ½çļĦ":5233,"åı¯ä»¥å¾ĹåĪ°":5234,"æ¢°":5235,"æħĪ":5236,"è¡Ģç®¡":5237,"ä»¥å¸®åĬ©":5238,"æ¡Īä»¶":5239,"åĽŀå½Ĵ":5240,"ç©ĨæľĹ":5241,"æĪĳå»ºè®®":5242,"æľįåĬ¡åĳĺ":5243,"ä»£æĽ¿":5244,"æĺİåªļ":5245,"è¿Ĳè¾ĵ":5246,"èµ¶":5247,"åŁºäºİä»¥ä¸Ĭ":5248,"ä½ĵçİ°":5249,"éģ¥":5250,"ç©ĨæľĹçİĽ":5251,"æĵħéķ¿":5252,"è¿Ļä»½":5253,"æ´»åĬĽ":5254,"çº¢æ¥¼":5255,"å¤§è±¡":5256,"åĩºåıĳ":5257,"åĩºçİ°äºĨ":5258,"é¼»":5259,"æĻ´æľĹ":5260,"åŃĻ":5261,"å¾Īå¿«":5262,"æĪĳä¸įèĥ½":5263,"çļĦä¹¦":5264,"500":5265,"çļĦæ°ĽåĽ´":5266,"å¦Ĩ":5267,"æĦĪ":5268,"è¯·ä»İ":5269,"æ³°åĿ¦":5270,"ç¤ºä¾ĭ":5271,"åı¯è¡Į":5272,"ä¸ªæľĪ":5273,"å¤±æľĽ":5274,"éĢļä¿¡":5275,"æİ¥ç§į":5276,"éĢłæĪĲäºĨ":5277,"æľīå®³":5278,"å®¾è¯Ń":5279,"å¤§çĨĬçĮ«":5280,"çļĦç´":5281,"åı¯ä»¥å¸®åĬ©ä½ł":5282,"ä¸įèµ·":5283,"çĽ¸åħ³ä¿¡æģ¯":5284,"é¢ĨåŁŁçļĦåºĶçĶ¨":5285,"å¯ĴåĨ·":5286,"è¿Ļä¹Ł":5287,"æıĲåīį":5288,"éģµå¾ª":5289,"å¥¥è¿Ĳä¼ļ":5290,"æķ°çĻ¾":5291,"çĶµè§Ĩåī§":5292,"åľ°åĽ¾":5293,"æ©ĺ":5294,"æ¯ģ":5295,"éĻĮ":5296,"ç©ĨæľĹçİĽå³°":5297,"åįĵ":5298,"ç²¾åĬĽ":5299,"æŁĲç§į":5300,"æļĹç¤º":5301,"çļĦçĹħ":5302,"è«":5303,"çļĦæ¤":5304,"åıĹä¼¤":5305,"åĴĮåģ¥åº·":5306,"æĪĳä»¬å¿ħé¡»":5307,"Ġæĸĩæľ¬":5308,"åĲĪæ³ķ":5309,"ä½Ĩåľ¨":5310,"åŃ¦ä¹łç¼ĸç¨ĭ":5311,"å°¼åħĭåı·":5312,"å¿ĺè®°":5313,"ä¹ŁéĿŀå¸¸":5314,"çĽĪ":5315,"æķ°åŃĹåĮĸ":5316,"æī«":5317,"çļĦçģµ":5318,"éķ¿åŁİ":5319,"è´¾":5320,"ä¼Ĺå¤ļ":5321,"è¯Ĺäºº":5322,"æĻ®åıĬ":5323,"åı¯èĥ½éľĢè¦ģ":5324,"çļĦæĻ¯çĤ¹":5325,"æ¸ħæ¥ļ":5326,"åİ¨æĪ¿":5327,"æĸĳ":5328,"å°¿çĹħ":5329,"æ¯ıåĳ¨":5330,"åĪ¶æĪĲ":5331,"çĥŃçĪ±":5332,"è°·æŃĮ":5333,"æĸĩæ¡£":5334,"çļĦæĸĩåĮĸ":5335,"åĬŀåħ¬å®¤":5336,"åŃ¦èĢħ":5337,"å¤·":5338,"åĮºåĿĹéĵ¾æĬĢæľ¯":5339,"çļĦæĢ»ç»ĵ":5340,"äºĭé¡¹":5341,"æľºåľº":5342,"åİĨç¨ĭ":5343,"80":5344,"åľ¨éĤ£éĩĮ":5345,"åħģ":5346,"çŃīåĽłç´ł":5347,"çļĦæĶ¶":5348,"å¼ºå¤§çļĦ":5349,"æ°§æ°Ķ":5350,"è°¢è°¢ä½ł":5351,"å¾®é£İ":5352,"ä»¥ä¸ĭæĺ¯ä¸ĢäºĽ":5353,"æĮĩåįĹ":5354,"æ³°åĿ¦å°¼åħĭåı·":5355,"é¥¼å¹²":5356,"å¤§è§Ħæ¨¡":5357,"å§Ĳ":5358,"çİ»çĴĥ":5359,"è¾Ľ":5360,"çļĦçŁŃæĸĩ":5361,"æĺ¯è°ģ":5362,"éĩİçĶŁåĬ¨çī©":5363,"çļĦåĲįåŃĹ":5364,"çº¢æ¥¼æ¢¦":5365,"çĲĨå¿µ":5366,"çĶ¨åĵģ":5367,"éĽ¾":5368,"çļĦæŃ¥éª¤":5369,"çļĦåĲĮæĹ¶":5370,"éĩİé¤Ĳ":5371,"çļĦæĢ§èĥ½":5372,"æµ´":5373,"è§£çŃĶ":5374,"ä¸ŃçļĦåħ³éĶ®è¯į":5375,"åĸ·":5376,"æĳĦæ°ı":5377,"éĹ®çŃĶ":5378,"å¤ļåħĥ":5379,"çıłç©ĨæľĹçİĽå³°":5380,"çļĦæİ¢":5381,"çĶ³åħĭ":5382,"æĿ°åħĭ":5383,"æ³½":5384,"èĤĸçĶ³åħĭ":5385,"Ġå¯¹äºİ":5386,"èĢģé¼ł":5387,"çļĦæķĳ":5388,"ä¸Ģç¯ĩåħ³äºİ":5389,"è¿ľç¨ĭ":5390,"åį±å®³":5391,"Ġ+":5392,"æ¶ĪéĻ¤":5393,"è¾£æ¤Ĵ":5394,"çĶµåĻ¨":5395,"å·¥ä½ľæķĪçİĩ":5396,"æľīçĶ¨":5397,"ç»ĦæĪĲéĥ¨åĪĨ":5398,"åĩºéĹ¨":5399,"èĥ½å¤Łåľ¨":5400,"å¯º":5401,"ä¼ı":5402,"åĪ¶åº¦":5403,"å¤Ħäºİ":5404,"æĿ¥åĪ°":5405,"çĶ·å£«":5406,"æ³Ħ":5407,"åĩºåİ»":5408,"br":5409,"åĲİæŀľ":5410,"ĠæĢ»ç»ĵ":5411,"ä¼ŀ":5412,"çĸ¼":5413,"åī²":5414,"æķĻåŃ¦":5415,"åľ¨æŃ¤":5416,"ç³ĸå°¿çĹħ":5417,"ä¹Ļ":5418,"å®ļä½į":5419,"èħ°":5420,"çļĦçī¹å¾ģ":5421,"åĴĮè¡Įä¸º":5422,"æ¸©é¦¨":5423,"æĮĸæİĺ":5424,"ä¸ºä¸»":5425,"Ġä»İæĸĩç«łä¸ŃæıĲåıĸ":5426,"æľĢè¿ĳçļĦ":5427,"æµĵéĥģ":5428,"çļĦä½ľçĶ¨":5429,"å¯¼èĩ´äºĨ":5430,"ç¾İåĳ³çļĦ":5431,"å®ĥåľ¨":5432,"æľŁæľĽ":5433,"æĶ¹æŃ£":5434,"ä¸įå°ĳ":5435,"éľį":5436,"¡èĲĿåįľ":5437,"èĥ¡èĲĿåįľ":5438,"è°¢è°¢ä½łçļĦ":5439,"å¤ķ":5440,"ç³Ĭ":5441,"æĺ¨æĻļ":5442,"åįıè°ĥ":5443,"å¾Īå¤§çļĦ":5444,"ç²¾ç¡®":5445,"çĲĥéĺŁ":5446,"èĢĮä¸į":5447,"ä¸Ģèµ·åİ»":5448,"è¿ĩäºİ":5449,"å°ıæĺİçļĦ":5450,"æĦŁæ¿Ģ":5451,"ç»¼ä¸Ĭ":5452,"äº¦":5453,"åĮ»çĸĹè¡Įä¸ļ":5454,"æ¢¨":5455,"éĿ¢ä¸Ĭ":5456,"åľ¨è¿Ļä¸ªåı¥åŃĲä¸Ń":5457,"æ°ĽåĽ´":5458,"å·²çŁ¥":5459,"åı¤è¯Ĺç»ŃåĨĻ":5460,"æ³¥":5461,"çłĶç©¶äººåĳĺ":5462,"é¥®çĶ¨":5463,"çľŁæŃ£çļĦ":5464,"å¤º":5465,"æĹłè®ºæĺ¯":5466,"åįıåĬ©":5467,"æĪĳæĺ¨å¤©":5468,"çĥĤ":5469,"æ¥Ń":5470,"åĸľåī§":5471,"ï¼ģâĢĿ":5472,"æĭĸ":5473,"çĽĨ":5474,"åĨ¬å¤©":5475,"æĺĨ":5476,"æ¡Īä¾ĭ":5477,"æĹ±":5478,"å¹³åĿĩåĪĨç»Ļ":5479,"çİ°åľº":5480,"åĲģ":5481,"ä¸ĬäºĨ":5482,"ç§ĭåŃ£":5483,"çĭ®åŃĲ":5484,"Ġåı¯ä»¥":5485,"æĻ¶":5486,"è®ĵ":5487,"è¿ĻäºĽä¿¡æģ¯":5488,"æ¦Ħ":5489,"æĦŁçŁ¥":5490,"æ¿Ģåıĳ":5491,"å§ĭç»Ī":5492,"åĩıç¼ĵ":5493,"è¶ħçº§":5494,"åıł":5495,"ç·":5496,"èĩ³åħ³éĩįè¦ģ":5497,"çĶŁæ´»çļĦ":5498,"åĬ£":5499,"è¿ĲåĬ¨åĳĺ":5500,"åģļæ³ķ":5501,"Ħæ¦Ħ":5502,"æĪĳæĥ³çŁ¥éģĵ":5503,"çļĦåĬĽéĩı":5504,"æĪĳè¿ĺ":5505,"éĢļè¿ĩå¯¹":5506,"éĤ¦":5507,"çİ¯å¢ĥéĹ®é¢ĺ":5508,"ä¼ĺåħĪ":5509,"è¯·æ±Ĥ":5510,"æĥ§":5511,"çļĦå£°éŁ³":5512,"é¥±":5513,"éĢĹåı·":5514,"çĲĨæĥ³":5515,"åĪĽéĢłåĬĽ":5516,"é¹¿":5517,"å¼¦":5518,"çļĦèĬ±":5519,"ä¸įç¡®å®ļ":5520,"ä½ľä¸ļ":5521,"æįŁå¤±":5522,"ä¿ĿæĬ¤æĪĳä»¬çļĦ":5523,"æ§":5524,"å·¥ä½ľåĴĮ":5525,"ä¸ĵæ³¨äºİ":5526,"âĦ":5527,"Ġ4":5528,"æĸĩç«łä¸ŃæıĲåĪ°":5529,"éĢīæĭ©ä¸Ģä¸ª":5530,"ä¸įå¤Ł":5531,"æŁľ":5532,"åıĻ":5533,"ä¹°äºĨä¸Ģ":5534,"åįİçĽĽ":5535,"å¯ĵ":5536,"æĥħå¢ĥ":5537,"çī©èģĶç½ĳ":5538,"å¥¶éħª":5539,"æĿ¨":5540,"åļ":5541,"æ»ļ":5542,"å®¶åĽŃ":5543,"è®¾è®¡ä¸Ģä¸ª":5544,"åĩºä¸Ģä¸ª":5545,"æĪĳåİ»":5546,"æī©å±ķ":5547,"åı¤åħ¸":5548,"åĬłçĥŃ":5549,"åĩºèī²çļĦ":5550,"ä¹ĭæĹħ":5551,"ä¸įèī¯":5552,"æĶĢ":5553,"åıĹåĪ°äºĨ":5554,"æĻļé¤Ĳ":5555,"âĢ¦âĢ¦":5556,"èģĮåľº":5557,"æĪĳä»Ĭå¤©":5558,"èĤīç±»":5559,"ç§ĳåŃ¦å®¶ä»¬":5560,"åįİçĽĽé¡¿":5561,"éªĹ":5562,"æķĻå¸Ī":5563,"ç®ĢåĮĸ":5564,"çĿ¡è§ī":5565,"å¦»":5566,"çļĦçĮ«":5567,"éĢĨ":5568,"éĶĻåĪ«":5569,"å¤įæĿĤçļĦ":5570,"åĩºçļĦ":5571,"çıįæĥľ":5572,"è¿Ļä¸ªäºº":5573,"éĶĻåĪ«åŃĹ":5574,"æĸ°æĬĢæľ¯":5575,"è´¢å¯Į":5576,"æĺ¯ä¸Ģå®¶":5577,"æĪĳæŃ£åľ¨":5578,"éĻĮçĶŁ":5579,"çĩ¥":5580,"âĦĥ":5581,"å°ĸ":5582,"ç»Ļäºº":5583,"çĭ¼":5584,"ä¸ĭçļĦ":5585,"æĸľ":5586,"æł¹æį®ç»Ļå®ļçļĦæĸĩæľ¬":5587,"çĲĨçĶ±":5588,"çĽ¸å½ĵ":5589,"é¡Į":5590,"ç«Ł":5591,"æ¼«æŃ¥":5592,"åĿĲåľ¨":5593,"ä»ĸä»¬ä¹ĭéĹ´":5594,"åĭĥ":5595,"éŃĤ":5596,"æĶ¹åıĺäºĨ":5597,"è®°å¾Ĺ":5598,"ç¾İæĻ¯":5599,"å±ıå¹ķ":5600,"æĸ°éĹ»æłĩé¢ĺ":5601,"å¼ºåº¦":5602,"èŃ¦æĸ¹":5603,"æķĮ":5604,"è¿Ī":5605,"æĺİäº®":5606,"å¾Īå¤ļäºº":5607,"çĶ¨éĢĶ":5608,"ä¸¤äºº":5609,"æģĲæĢĸ":5610,"éĹ»åĲį":5611,"æııåĨĻ":5612,"ä»¥åħ¶":5613,"ä¸ĸçķĮåĲĦåľ°":5614,"ä¸įåŃĺåľ¨":5615,"æĹħæ¸¸çĽ®çļĦåľ°":5616,"it":5617,"ĠÃ·":5618,"çİ°ä»£ç¤¾ä¼ļ":5619,"å¦Ĥä½ķåĪ¶ä½ľ":5620,"åıĤæķ°":5621,"åĲ¬éŁ³ä¹Ĳ":5622,"å¾Īé«ĺåħ´":5623,"æĺİçĻ½äºĨ":5624,"æ³ª":5625,"ĸæģ¯":5626,"ä¿Ħ":5627,"åģıè§ģ":5628,"æľīæ°§":5629,"è³ĩ":5630,"åľ°åĲį":5631,"çļĦçĭ¬":5632,"çļĦç¼ĸç¨ĭ":5633,"å£³":5634,"èĨľ":5635,"åĲĦä¸ªé¢ĨåŁŁ":5636,"éĢļå¸¸ä¼ļ":5637,"æ¡Ĩ":5638,"èħ¾":5639,"ä¸Ńæī¾åĪ°":5640,"å±ħä½ı":5641,"å¼ķå¯¼":5642,"æ²Ļåıĳ":5643,"çļĦæ¡":5644,"Ġä»¥ä¸ĭæĺ¯ä¸Ģéģĵå°ıåŃ¦æķ°åŃ¦é¢ĺ":5645,"äººæĢ§":5646,"åĴĮçĲĨè§£":5647,"æıĲé«ĺäºĨ":5648,"èĸ¯":5649,"éĶĻè¿ĩ":5650,"å·²æĪĲä¸º":5651,"æ£ĭ":5652,"çŃĽ":5653,"å»ºè®®åĲĹ":5654,"åİŁåŃĲ":5655,"åł´":5656,"çĭĹçļĦ":5657,"ä¸Ģä¸ªéĹ®é¢ĺ":5658,"é£İæļ´":5659,"æĿī":5660,"è¡Įé©¶":5661,"èī°":5662,"çİ«":5663,"æł¹æį®èĩªå·±çļĦ":5664,"åĳ¼åĲģ":5665,"ãĢĤ\"<|":5666,"çļĦæ²ŁéĢļ":5667,"æ¶¨":5668,"çļĦåĳ³éģĵ":5669,"å¹²åĩĢ":5670,"å°ĩ":5671,"è°ĭ":5672,"äºļé©¬":5673,"çĤİçĥŃ":5674,"ç¢ĳ":5675,"å¹¿æ³ĽçļĦ":5676,"è¡¨è¿°":5677,"åĴĮä¸ªäºº":5678,"åºĻ":5679,"ç²®":5680,"èĬĿå£«":5681,"å¸¦çĿĢ":5682,"åħ³éĹŃ":5683,"çŃīå¤ļä¸ª":5684,"æĽ´æĶ¹":5685,"æİ¨è¿Ľ":5686,"ä»ĸåĢĳ":5687,"ä¸ĭéĿ¢çļĦåı¥åŃĲ":5688,"æŁ¿":5689,"ĠçĶŁæĪĲ":5690,"æĭĽèģĺ":5691,"æ¯ķä¸ļ":5692,"æĹ¥çĽĬ":5693,"æ¿ĢçĥĪ":5694,"æķ°æį®åĪĨæŀĲ":5695,"æ¸©å®¤æ°Ķä½ĵæİĴæĶ¾":5696,"æĪ¿å±ĭ":5697,"è¿ĻäºĽéĥ½æĺ¯":5698,"æĹ©æľŁ":5699,"çļĦæ²Ļ":5700,"ä½Ĩä¸į":5701,"æĮ¯":5702,"æĸĩè¨Ģ":5703,"æľīæĦıä¹ī":5704,"çļĦæĻ®":5705,"ä¼Ĳ":5706,"èĥľåľ°":5707,"æķħäºĭæĥħèĬĤ":5708,"____":5709,"å±Ĥæ¬¡":5710,"çī¹å®ļçļĦ":5711,"ä¸Ģèĩ´":5712,"èĺĳ":5713,"åħģè®¸":5714,"éĩıåŃĲåĬĽåŃ¦":5715,"åĪĳ":5716,"éĻªä¼´":5717,"å®¢æľį":5718,"è¿Ļæ®µè¯Ŀ":5719,"æĪĳä»¬åľ¨":5720,"æ¿ĢåĬ±":5721,"çīĽä»Ķ":5722,"çļĦçĬ¶æĢģ":5723,"æĺ¯ä¸ĸçķĮä¸ĬæľĢ":5724,"æĺĤ":5725,"å¤§å¤§":5726,"å©´":5727,"æīİ":5728,"æľĪäº®":5729,"èĭ¹æŀľåħ¬åı¸":5730,"ç¿ħ":5731,"äºļé©¬éĢĬ":5732,"at":5733,"ç¥ĸ":5734,"æĹ©æĻ¨":5735,"æ´Ĵ":5736,"æĥĳ":5737,"ï¼ħ":5738,"äººå·¥æĻºèĥ½æĬĢæľ¯åľ¨":5739,"é«ĺè´¨éĩı":5740,"å¾Į":5741,"çļĦæķ°åŃĹ":5742,"æĺ¾å¾Ĺ":5743,"å®īåħ¨åĴĮ":5744,"åľ°çĲĨ":5745,"æºª":5746,"æľīæĹ¶åĢĻ":5747,"èĺĳèıĩ":5748,"å»ºçŃĳçī©":5749,"åĲĳéĩı":5750,"èĥĥ":5751,"åıĳéĢģ":5752,"çļĦä¾ĭåŃĲ":5753,"åŀĤ":5754,"ä¸ĢäºĽäºº":5755,"æĪĺæĸĹ":5756,"ç»Ļå®ļæĸĩæľ¬":5757,"æĸĩè¨Ģæĸĩ":5758,"ä¿Ŀæļĸ":5759,"ä½Ĩä¹Ł":5760,"Ġä½łèĥ½":5761,"æĨ":5762,"æĢ»ä½ĵ":5763,"é£İåħī":5764,"ç¿Ķ":5765,"è¯Ńå¢ĥ":5766,"ä¿®å¤į":5767,"æ¾³":5768,"åģ¥èº«æĪ¿":5769,"éĿ¢ä¸´çĿĢ":5770,"è¯¥åı¥åŃĲ":5771,"çļĦå½¢å¼ı":5772,"æ©Ħæ¦Ħ":5773,"çŃīäºİ":5774,"å¹¶è¾ĵåĩº":5775,"åľ¨åĵªéĩĮ":5776,"æķ°æį®åĴĮ":5777,"çļĦæķĳèµİ":5778,"æĬĢæľ¯çļĦåıĳå±ķ":5779,"å¸ĤåľºèĲ¥éĶĢ":5780,"æĽ¿æį¢ä¸º":5781,"å²ģçļĦ":5782,"æŀģç«¯å¤©æ°Ķ":5783,"é½¿":5784,"èĵĿèī²çļĦ":5785,"çİ«çĳ°":5786,"æĪĳä»¬ä¼ļ":5787,"çļĦæŃĮæĽ²":5788,"å¤ĩåıĹ":5789,"åĳĪçİ°åĩº":5790,"èĿ´":5791,"åĽ¾æ¡Ī":5792,"èĿ´èĿ¶":5793,"æĶ¿æ²»":5794,"è®©è®¡ç®Ĺæľº":5795,"æĪĳä»¬åı¯ä»¥çĶ¨":5796,"åĩºçīĪ":5797,"å²Ĺ":5798,"åĴĮçİ¯å¢ĥ":5799,"æĪĺçķ¥":5800,"æııè¿°ä¸Ģä¸ª":5801,"éĢļçŁ¥":5802,"äººå·¥æĻºèĥ½åĴĮ":5803,"ç¢³æİĴæĶ¾":5804,"äºīè®®":5805,"éĤ»":5806,"åĪĨåĪ«æĺ¯":5807,"ä¹Łèĥ½":5808,"\"ãĢĤ":5809,"ç«ĭåį³":5810,"ç»ıèĲ¥":5811,"è®¾å®ļ":5812,"çĪ¶æ¯į":5813,"åįıè®®":5814,"éĺ¿çĶĺ":5815,"çİ¯ä¿ĿçļĦ":5816,"ĠæıĲä¾Ľ":5817,"å¿«éĢŁåıĳå±ķ":5818,"ä¸ĭéĿ¢çļĦæĸĩæľ¬":5819,"çĺ¦":5820,"ç»¼ä¸ĬæīĢè¿°":5821,"ç»³":5822,"çĭ±":5823,"åıĳè¡¨":5824,"è¤":5825,"åĲįåı«":5826,"åºŁå¼ĥ":5827,"æıŃç¤º":5828,"ç§Ĵ":5829,"èĥĸ":5830,"è¿Ļä¸ªæķħäºĭ":5831,"éĶħä¸Ń":5832,"å»ºéĢł":5833,"ä¸Ģæ®µå¯¹è¯Ŀ":5834,"çļĦåĲįç§°":5835,"ä¸ªä½ĵ":5836,"ä½łæĺ¯":5837,"å¥½åĥı":5838,"æ¢ģ":5839,"çĤī":5840,"æ°¢":5841,"åıĳçİ°äºĨ":5842,"å¼ºåĮĸ":5843,"éĢĶå¾Ħ":5844,"ä½Ĩæĺ¯æĪĳ":5845,"çļĦæĬ¥":5846,"æĪĸç¼º":5847,"å¤ªå¤ļ":5848,"ç´łé£Ł":5849,"åĲİçļĦåı¥åŃĲ":5850,"å®ŀä½ĵè¯ĨåĪ«":5851,"ç§ĳå¹»å°ıè¯´":5852,"æĪª":5853,"èĤĸçĶ³åħĭçļĦæķĳèµİ":5854,"ä¸Ģåħ±":5855,"çļĦåĴĸåķ¡":5856,"æĪĲçĨŁ":5857,"çŁ¶":5858,"çļĦæ°ĶåĢĻ":5859,"æĽ´æŃ£":5860,"æĭĴ":5861,"æĴ°åĨĻ":5862,"å½»":5863,"çĶµåŃĲåķĨåĬ¡":5864,"å¹¼":5865,"å¾¡":5866,"æ²ĥ":5867,"æ©Ł":5868,"çļĦæķ°åŃ¦":5869,"èĥ¶":5870,"åĴĮç®¡çĲĨ":5871,"èħĬ":5872,"åĬłå·¥":5873,"æĵ¦":5874,"æĦıå¤ĸ":5875,"åľ°åĿĢ":5876,"å¤±ä¸ļ":5877,"è±ĨèħĲ":5878,"éŀĭåŃĲ":5879,"çĶ¢":5880,"å½¢æĢģ":5881,"ä¼ĺç¾İ":5882,"éĽķ":5883,"çļĦåħ³éĶ®ä¿¡æģ¯":5884,"æķ°æį®ä¸Ń":5885,"å¼ķèµ·äºĨ":5886,"æĳĦæ°ıåº¦":5887,"äºĳè®¡ç®Ĺ":5888,"ä¸Ģä¸ĭè¿Ļç¯ĩæĸĩç«ł":5889,"å®¶éĩĮ":5890,"äººåĴĮ":5891,"æĸ°åĨł":5892,"è¾ĥä¸º":5893,"éĿŀå¸¸éĢĤåĲĪ":5894,"æĸĩèīº":5895,"æĪĳåĴĮ":5896,"è®©äººæĦŁåĪ°":5897,"äººæķ°":5898,"åŀ«":5899,"æĪĸæĺ¯":5900,"æĦģ":5901,"éĢıæ°Ķ":5902,"çĶµå½±åĲįç§°":5903,"çĽĸèĮ¨":5904,"åıĺéĩı":5905,"çļĦä¸įåĲĮ":5906,"å¿ĥèĦıçĹħ":5907,"ob":5908,"åıĺå¾Ĺè¶ĬæĿ¥è¶Ĭ":5909,"çļĦæİĴæĶ¾":5910,"æģ°":5911,"çĥ¤ç®±":5912,"éĢĤçĶ¨äºİ":5913,"èħ¹":5914,"Ġå°Ĩä»¥ä¸ĭ":5915,"å§ľ":5916,"èµ°äºĨ":5917,"çļĦæĶ¿":5918,"è¯¦ç»ĨçļĦ":5919,"é«ĺçļĦå±±å³°":5920,"å°ıæĺİåĴĮå°ıçº¢":5921,"èĻ¾":5922,"æİ¥è¿ĳ":5923,"æĸ°æ¬¾":5924,"åŁºäºİä»¥ä¸ĭ":5925,"199":5926,"ä¼ģä¸ļå®¶":5927,"æ²¡æľīä»»ä½ķ":5928,"åŁºäºİä»¥ä¸Ĭè¿Ļæ®µæĸĩæľ¬":5929,"æ¯ıä¸ªäººéĥ½åºĶè¯¥":5930,"--":5931,"ä¹ĭä¸Ń":5932,"éĶ»çĤ¼èº«ä½ĵ":5933,"çļĦè¡¨çİ°":5934,"åĿļå®ļ":5935,"è¿Ļæĺ¯ä¸Ģéĥ¨":5936,"æķ°æį®è¿Ľè¡Į":5937,"æº¯":5938,"åĮ»åŃ¦å½±åĥı":5939,"ä¸ĭåĳ¨":5940,"åĩıå°ĳä½¿çĶ¨":5941,"çļĦåħ³éĶ®è¯į":5942,"åĩıèĤ¥":5943,"äººä»¬å¯¹":5944,"åĩłç§į":5945,"éĺ³åħīæĺİåªļ":5946,"çħ§é¡¾":5947,"çļĦæłĳ":5948,"çĶľçĤ¹":5949,"åı¯ä»¥æıĲä¾Ľ":5950,"çļĦä¸ľè¥¿":5951,"çļĦæ¤į":5952,"å¿ĹæĦ¿":5953,"åĽºå®ļ":5954,"çļĦä¸»è¦ģè§ĤçĤ¹æĺ¯":5955,"æĪĲä¸ºä¸Ģä¸ª":5956,"åįļå®¢":5957,"éŁ§":5958,"ç®ĢåİĨ":5959,"æ·±è¿ľçļĦå½±åĵį":5960,"ä¸įåı¯æĪĸç¼º":5961,"è¢«è§Ĩä¸º":5962,"çļĦæ³¨":5963,"åħ´è¶£çĪ±å¥½":5964,"è¿ĳæľŁ":5965,"åĨħçļĦ":5966,"åĴĮç»ıæµİ":5967,"åĳ¨æľŁ":5968,"æĮĩä»¤":5969,"Ġå°Ĩä»¥ä¸ĭåı¥åŃĲ":5970,"ç¾İå¦Ļ":5971,"è¸ı":5972,"çĶŁæĢģçİ¯å¢ĥ":5973,"ä¹Łå°Ĩ":5974,"åĴĮåŃ¦ä¹ł":5975,"ĠæĬĬ":5976,"åľ¨åħ¬åĽŃéĩĮ":5977,"çļĦäººçī©":5978,"çļĦåľºæĻ¯":5979,"å¡ĳæĸĻè¢ĭ":5980,"èĶ¬èıľåĴĮ":5981,"æĢ§æł¼":5982,"ðŁ":5983,"è¡¥åħħ":5984,"çªģçł´":5985,"çļĦæľĢä½³":5986,"æĿ¥åĩıå°ĳ":5987,"èªīä¸º":5988,"åħ½":5989,"è¯Ī":5990,"Ġä»İæĸĩç«łä¸ŃæıĲåıĸåĩº":5991,"Ġè¯·éĹ®":5992,"åıĸæ¶Ī":5993,"æľ¬è´¨":5994,"èĥ¡æ¤Ĵ":5995,"èĢĥèĻĳåĪ°":5996,"åİĺç±³":5997,"å¾®ç¬ĳ":5998,"ç®¡çĲĨåĴĮ":5999,"åĮħå®¹":6000,"é¸ŁåĦ¿":6001,"ç³Ł":6002,"ä»¥åĲİ":6003,"è§Ĵèī²ä»ĭç»į":6004,"çļĦç¤¼":6005,"ç¬¬ä¸Ģæ¬¡":6006,"åĴĮæĬĢèĥ½":6007,"èĨĢ":6008,"çĶµå½±è¯Ħè®º":6009,"ç§ĳæĬĢåħ¬åı¸":6010,"åľŁè±Ĩ":6011,"ä»¥åīį":6012,"å¤ļæ¬¡":6013,"çļĦæ³ķå¾ĭ":6014,"åĪĽéĢłä¸Ģä¸ª":6015,"å¥³åŃĲ":6016,"åĬłå¯Ĩ":6017,"çļĦæ¸©åº¦":6018,"åĩłä¹İ":6019,"æĤłä¹ħ":6020,"çī©æµģ":6021,"æĿīçŁ¶":6022,"éĻĪè¿°åı¥":6023,"æľ¨æĺŁ":6024,"çį":6025,"åīĳ":6026,"èĥĨ":6027,"å¨ģå¤·":6028,"å°Ĩä»¥ä¸ĭ":6029,"èĪį":6030,"è¾ĥé«ĺ":6031,"å¤ıå¨ģå¤·":6032,"åı¯ä»¥å¸®åĬ©åĮ»çĶŁ":6033,"ä¼į":6034,"æ¡ĮåŃĲ":6035,"çļĦæµ·æ»©":6036,"å®½æĿ¾":6037,"çļĦåŃ£èĬĤ":6038,"éľĢè¦ģè¿Ľè¡Į":6039,"ä»Ķç»Ĩ":6040,"ä¼ĺéĽħ":6041,"çļĦç¨ĭåºı":6042,"ĠéĩįåĨĻä»¥ä¸ĭåı¥åŃĲ":6043,"ç»ŃåĨĻåı¤è¯Ĺ":6044,"é©¬æĭī":6045,"å»ºç«ĭä¸Ģä¸ª":6046,"çļĦæīĭæľº":6047,"çļĦä»£è¡¨":6048,"å¸ĿåĽ½":6049,"æľ¯è¯Ń":6050,"å¹¶ä½¿çĶ¨":6051,"æĪ¿åŃĲ":6052,"éĴ¢çĲ´":6053,"çİĭæĺŁ":6054,"ä¸Ģå°ģ":6055,"ç§ĺå¯Ĩ":6056,"å¯¹å¾ħ":6057,"çļĦç¬ĳ":6058,"åĿļæŀľ":6059,"åĽŀçŃĶä»¥ä¸ĭéĹ®é¢ĺ":6060,"éĥ½å¾Ī":6061,"åķı":6062,"å¤ļå½©":6063,"å¹²æī°":6064,"ä½łåı¯ä»¥å°Ŀè¯ķ":6065,"å¤ĸè§Ĥ":6066,"å·¾":6067,"åĴĮæµ·":6068,"åĬłåī§":6069,"çļĦå¸®åĬ©":6070,"åĴĮèĶ¬èıľ":6071,"ä¸ºæĪĳä»¬":6072,"å®³æĢķ":6073,"å¹½é»ĺ":6074,"ä¸Ģæ¬¡æĢ§":6075,"çīĩæ®µ":6076,"åĻª":6077,"åıĸåĩº":6078,"æ¸ł":6079,"æĭĵå±ķ":6080,"å«Įçĸĳ":6081,"åĮħåĲ«äºĨ":6082,"æ¯ıä¸ªäººçļĦ":6083,"éĩįè¦ģçļĦä½ľçĶ¨":6084,"ä¸įéĶĻçļĦéĢīæĭ©":6085,"åĩıåİ»":6086,"ç¿ł":6087,"åī©ä½Ļ":6088,"å¤ļå¹´":6089,"åĳĢ":6090,"åİŁæĿ¥":6091,"è¿ĻäºĽæĬĢæľ¯":6092,"èĪªç©º":6093,"å½ĵæĪĳ":6094,"åĸĦèī¯":6095,"çĸı":6096,"æ¡¶":6097,"ä¸įçĶ¨":6098,"ä¸»åĬ¨":6099,"æ¯Ķäºļ":6100,"æ¯Ķå¦Ĥè¯´":6101,"æĢ§è´¨":6102,"çĶ¨æĪ·çļĦ":6103,"Ġ(":6104,"åı¯è¯»":6105,"ä¿ĿæĮģèº«ä½ĵåģ¥åº·":6106,"å¦ĤæŀľæĪĳä»¬":6107,"åĺ´":6108,"ä¸ºä¸Ģä¸ª":6109,"å¹¿éĺĶ":6110,"å¯Ĩåº¦":6111,"èĤ©":6112,"æĮĩæłĩ":6113,"åľ°éĵģ":6114,"æĺŁæĺŁ":6115,"ĠAI":6116,"è¿ģ":6117,"å½ĵæĪĳä»¬":6118,"ç»Ĩèħ»":6119,"åĮĹäº¬å¸Ĥ":6120,"åħ¨éĥ¨":6121,"è¿Ŀåıį":6122,"æľ¬å°ıè¯´":6123,"æ¯ıä¸Ģä¸ª":6124,"çİ°çĬ¶":6125,"å±ķçİ°äºĨ":6126,"å¯Ħ":6127,"è®©å®ĥ":6128,"æĬĳéĥģ":6129,"çļĦç©ºæ°Ķ":6130,"ç»µ":6131,"äººå·¥æĻºèĥ½åı¯ä»¥":6132,"åĨ°å·Ŀ":6133,"éļĨ":6134,"æĪĳæĥ³è¦ģ":6135,"oo":6136,"éģĹä¼ł":6137,"æĮº":6138,"å¤§æĪĺ":6139,"åĩĨå¤ĩå¥½":6140,"é¢ĳçİĩ":6141,"ä¸Ĭæĺł":6142,"ç¥ŀå¥ĩ":6143,"æľīæ°§è¿ĲåĬ¨":6144,"çļĦç¡":6145,"åĽŀçŃĶä¸ĭéĿ¢":6146,"æĢİä¹Īåģļ":6147,"ä»İä¸Ń":6148,"çļĦçł´":6149,"ä»Ĭå¤©çļĦå¤©æ°Ķ":6150,"è¿Ļä¸¤":6151,"æĭħä»»":6152,"æ¸´":6153,"çĸ¾çĹħçļĦ":6154,"çļĦæĢĿèĢĥ":6155,"å®īåħ¨æĢ§":6156,"å§Ĩæĸ¯":6157,"åĪ¸":6158,"ä¸ĸçķĮä¸Ĭ":6159,"èĮ«":6160,"è¿ĺè¦ģ":6161,"çļĦæĢĿç»´":6162,"çĽ¸çŃī":6163,"åŀĥåľ¾éĤ®ä»¶":6164,"å±ķç¤ºäºĨ":6165,"åĨĮ":6166,"ä»£è°¢":6167,"è¯¦ç»ĨåĽŀçŃĶ":6168,"æ´ĽæĿīçŁ¶":6169,"ç½²":6170,"çļĦéĢŁåº¦":6171,"Ja":6172,"éľĢè¦ģåľ¨":6173,"æ¶Į":6174,"çĲ³":6175,"çļĦæ°Ķæģ¯":6176,"éĢīæĭ©éĢĤåĲĪ":6177,"è¡°":6178,"æĤ²ä¼¤":6179,"æģĴæĺŁ":6180,"æłĳæľ¨":6181,"èı²å°Ķ":6182,"æĹĹ":6183,"æĸĩæľ¬ä¸ŃçļĦåħ³éĶ®è¯į":6184,"ç´łè´¨":6185,"çļĦåħī":6186,"å¿į":6187,"è¢«èªīä¸º":6188,"çĨŁæĤī":6189,"éŁ¿":6190,"ä¹ĺåĿĲ":6191,"å©ļç¤¼":6192,"ç¿Ĵ":6193,"å®ļå¾ĭ":6194,"è®¤åı¯":6195,"åį±æľº":6196,"çļĦä¸Ģæ®µå¯¹è¯Ŀ":6197,"å®´":6198,"çļĦèĭ¹æŀľ":6199,"è¡¬è¡«":6200,"åĴĮå¯¹":6201,"æ°Ľ":6202,"ä¸ĬçıŃ":6203,"é»Ľ":6204,"çļĦèĩªçĦ¶":6205,"éĿ¢æĿ¡":6206,"æľĢéĢĤåĲĪ":6207,"äººä»¬åľ¨":6208,"70":6209,"å¹³éĿĻ":6210,"å®ĮæĪĲä»»åĬ¡":6211,"èĪĴéĢĤçļĦ":6212,"è¿Ļæł·åı¯ä»¥":6213,"çļĦé¢ĨåŁŁ":6214,"çļĦæ¯ĶèµĽ":6215,"å¦Ĥä»Ĭ":6216,"ä»ĩ":6217,"Ġè¯·åĳĬè¯īæĪĳ":6218,"çļĦåĬŁèĥ½":6219,"æĺ¯ä¸ºäºĨ":6220,"åľ°çĲĥä¸Ĭ":6221,"çĵ¦":6222,"åħ¶ä»ĸäºº":6223,"åģļä¸ĢäºĽ":6224,"çļĦå®ļä¹ī":6225,"åĮ¹éħį":6226,"è´·":6227,"ĠĊ":6228,"èķ´åĲ«":6229,"åĩĮ":6230,"å®ĥä»¬åľ¨":6231,"DNA":6232,"ä¸ĭä¸Ģä¸ª":6233,"æī¿æĭħ":6234,"åĩºçİ°åľ¨":6235,"å°±èĥ½":6236,"ä¹Ĳè§Ĥ":6237,"è¢Ń":6238,"çļĦç¾İæĻ¯":6239,"éĵģå¡Ķ":6240,"æ·±æ·±":6241,"ç¼ĸç¨ĭè¯Ńè¨Ģ":6242,"ç»ĺçĶ»":6243,"æĹĭè½¬":6244,"åı£åı·":6245,"ç»Ŀå¯¹":6246,"ä¸»æ¼Ķ":6247,"ä¸ªåŃĹ":6248,"çĳŁ":6249,"éļ¾é¢ĺ":6250,"åŃ¦ä¹łæĸ°":6251,"ç¾İåĽ½æĢ»ç»Ł":6252,"åĬŀæ³ķ":6253,"çļĦè§ĤçĤ¹":6254,"åĲİæĿ¥":6255,"æĭ¥åłµ":6256,"æĸĩæľ¬éĶĻè¯¯è¿Ľè¡Į":6257,"æ¨ª":6258,"åģļèµ·":6259,"å¹¶å¯¹":6260,"éĿ¢ç²ī":6261,"èĢģäºº":6262,"åĲ«éĩı":6263,"ç»Ļä½łä¸¤ä¸ª":6264,"è®©ä»ĸä»¬":6265,"ç±»ä¼¼äºİ":6266,"éĹ¹":6267,"ä¿¡çĶ¨":6268,"åĽłä¸ºæĪĳ":6269,"åĿ¡":6270,"åĽ´ç»ķ":6271,"åķ¦":6272,"é£İåĲ¹":6273,"å¯¹è¯Ŀä¸Ń":6274,"çĶ·äºº":6275,"æµĨ":6276,"çŃīå¤ļç§į":6277,"æ²³æµģ":6278,"AP":6279,"æĢĴ":6280,"çľĭçĿĢ":6281,"åħ¼":6282,"å¹²æĹ±":6283,"æĢ§éĹ®é¢ĺ":6284,"åĴĮå°ı":6285,"æĿľ":6286,"å¸ħ":6287,"è·Łè¸ª":6288,"åĴĮä½¿çĶ¨":6289,"åľĨå½¢":6290,"æĹĭå¾ĭ":6291,"è½¨éģĵ":6292,"è¿½æº¯":6293,"åħĥéĴ±":6294,"ä¸´åºĬ":6295,"æĶ¾ç½®":6296,"èĢĲå¿ĥ":6297,"äººå·¥æĻºèĥ½å°Ĩ":6298,"å¦ĤæŀľæĤ¨éľĢè¦ģ":6299,"æĸĩæľ¬åĪĨç±»":6300,"çĶŁæĪĲä»ĸä»¬ä¹ĭéĹ´":6301,"è¦ģæ±Ĥå¯¹è¯ĿåĨħå®¹":6302,"è¯¦ç»Ĩä¸°å¯Į":6303,"è§Ĵèī²ä¿¡æģ¯å¦Ĥä¸ĭ":6304,"ç»Ļä½łä¸¤ä¸ªè§Ĵèī²ä¿¡æģ¯å¦Ĥä¸ĭ":6305,"çĶŁæĪĲä»ĸä»¬ä¹ĭéĹ´çļĦä¸Ģæ®µå¯¹è¯Ŀ":6306,"è¦ģæ±Ĥå¯¹è¯ĿåĨħå®¹è¯¦ç»Ĩä¸°å¯Į":6307,"éĽĩ":6308,"1000":6309,"æŀļ":6310,"ä»¥éģ¿åħį":6311,"è¾¾æĪĲ":6312,"¬éĹ´":6313,"æł¼å¼ı":6314,"æĶ¹éĿ©":6315,"èĤĿ":6316,"æľĢéĩįè¦ģçļĦæĺ¯":6317,"ç½Ĺé©¬":6318,"è¿Ļä¸ªè¯į":6319,"äºĨä¸Ģåľº":6320,"èľľèľĤ":6321,"ĠåĳĬè¯īæĪĳ":6322,"æ°Ķè±¡":6323,"åħ±åĲĮåĬªåĬĽ":6324,"æłĩçĤ¹ç¬¦åı·":6325,"æĹłæķ°":6326,"æ¯Ķçī¹":6327,"ç»ĻæĪĳä¸ĢäºĽ":6328,"ç²¾èĩ´":6329,"æł¹æį®ä»¥ä¸Ĭ":6330,"å®¢è§Ĥ":6331,"çļĦæĢĿæĥ³":6332,"çļĦçĤ":6333,"å·²ç»ıåľ¨":6334,"æ¹¾":6335,"çľĭäºĨ":6336,"åĢ¡":6337,"å¿ĥè¡Ģç®¡":6338,"ç¿»è¯ĳæĪĲçİ°ä»£":6339,"èĬĤçľģ":6340,"æłĳåı¶":6341,"éĢĲæŃ¥":6342,"åħ¨çĲĥæ°ĶåĢĻåıĺåĮĸ":6343,"çĶŁåĳ½çļĦ":6344,"ç¬Ķè®°":6345,"ĸæģ¯åľ°":6346,"åħĭæĸ¯":6347,"æľºåĻ¨åŃ¦ä¹łåĴĮ":6348,"åģļä»Ģä¹Ī":6349,"ä¿¡æģ¯åĴĮ":6350,"äººå·¥æĻºèĥ½æĬĢæľ¯çļĦ":6351,"åĨĽäºĭ":6352,"ç¿»è¯ĳæĪĲæĸĩè¨Ģæĸĩ":6353,"å¼¯":6354,"ç»ĦæĪĲçļĦ":6355,"èįīåİŁ":6356,"è¿ĩæ»¤":6357,"ä¸Ńåįİ":6358,"åħįè´¹":6359,"è®©æĤ¨":6360,"çļĦæĤ":6361,"ç®Ģæĺİ":6362,"æĺ¯ä»Ģä¹ĪæĦıæĢĿ":6363,"æľīäºĨ":6364,"æľīå¤ļå°ĳ":6365,"ä¸ĭåİ»":6366,"å¯¦":6367,"çĶŁäº§åĬĽ":6368,"éĨĭ":6369,"ç»ĵæŀĦåĴĮ":6370,"å®ĿèĹı":6371,"èµ¢å¾ĹäºĨ":6372,"ä¸ĸçķĮçļĦ":6373,"æĺ¯ä¸Ģä¸ªéĿŀå¸¸":6374,"...":6375,"Ġå½ĵçĦ¶":6376,"è¯ŃæĢģ":6377,"è¿Ļä¸ªæĸĩæľ¬":6378,"ä¸įåºĶè¯¥":6379,"åĳ½åĲį":6380,"æł¹æį®æīĢ":6381,"éħįåĲĪ":6382,"å¥¹åľ¨":6383,"åħ¶ä¸Ńä¸Ģä¸ª":6384,"èº«ä¸Ĭ":6385,"è¿Ļç¯ĩæĸĩç«łä¸»è¦ģ":6386,"åĲ¦å®ļ":6387,"æĿ¥è¿Ľè¡Į":6388,"é«ĺæ¸©":6389,"å¦ĤæŀľæĤ¨åĸľæ¬¢":6390,"èģĶçĽŁ":6391,"è¥¿çĵľ":6392,"ç¿»è¯ĳæĪĲçİ°ä»£æĸĩ":6393,"ä¹ĭæĥħ":6394,"æĪĳçĽ¸ä¿¡":6395,"çĮ´":6396,"æĲľç´¢å¼ķæĵİ":6397,"èīºæľ¯åĵģ":6398,"ç»Ļå®ļä¸Ģä¸ª":6399}